/* Copyright 2020 The TensorFlow Authors. All Rights Reserved.

Licensed under the Apache License, Version 2.0 (the "License");
you may not use this file except in compliance with the License.
You may obtain a copy of the License at

    http://www.apache.org/licenses/LICENSE-2.0

Unless required by applicable law or agreed to in writing, software
distributed under the License is distributed on an "AS IS" BASIS,
WITHOUT WARRANTIES OR CONDITIONS OF ANY KIND, either express or implied.
See the License for the specific language governing permissions and
limitations under the License.
==============================================================================*/

// This is a standard TensorFlow Lite FlatBuffer model file that has been
// converted into a C data array, so it can be easily compiled into a binary
// for devices that don't have a file system. It was created using the command:
// xxd -i model.tflite > model.cc

#include "micro_features_model.h"

// We need to keep the data array aligned on some architectures.
#ifdef __has_attribute
#define HAVE_ATTRIBUTE(x) __has_attribute(x)
#else
#define HAVE_ATTRIBUTE(x) 0
#endif
#if HAVE_ATTRIBUTE(aligned) || (defined(__GNUC__) && !defined(__clang__))
#define DATA_ALIGN_ATTRIBUTE __attribute__((aligned(4)))
#else
#define DATA_ALIGN_ATTRIBUTE
#endif

const unsigned char g_model[] DATA_ALIGN_ATTRIBUTE = {
  0x20, 0x00, 0x00, 0x00, 0x54, 0x46, 0x4c, 0x33, 0x00, 0x00, 0x00, 0x00,
  0x14, 0x00, 0x20, 0x00, 0x1c, 0x00, 0x18, 0x00, 0x14, 0x00, 0x10, 0x00,
  0x0c, 0x00, 0x00, 0x00, 0x08, 0x00, 0x04, 0x00, 0x14, 0x00, 0x00, 0x00,
  0x1c, 0x00, 0x00, 0x00, 0x1c, 0x00, 0x00, 0x00, 0x74, 0x00, 0x00, 0x00,
  0xcc, 0x42, 0x00, 0x00, 0xdc, 0x42, 0x00, 0x00, 0x70, 0x49, 0x00, 0x00,
  0x03, 0x00, 0x00, 0x00, 0x00, 0x00, 0x00, 0x00, 0x02, 0x00, 0x00, 0x00,
  0x34, 0x00, 0x00, 0x00, 0x04, 0x00, 0x00, 0x00, 0xdc, 0xff, 0xff, 0xff,
  0x0e, 0x00, 0x00, 0x00, 0x04, 0x00, 0x00, 0x00, 0x13, 0x00, 0x00, 0x00,
  0x43, 0x4f, 0x4e, 0x56, 0x45, 0x52, 0x53, 0x49, 0x4f, 0x4e, 0x5f, 0x4d,
  0x45, 0x54, 0x41, 0x44, 0x41, 0x54, 0x41, 0x00, 0x08, 0x00, 0x0c, 0x00,
  0x08, 0x00, 0x04, 0x00, 0x08, 0x00, 0x00, 0x00, 0x0d, 0x00, 0x00, 0x00,
  0x04, 0x00, 0x00, 0x00, 0x13, 0x00, 0x00, 0x00, 0x6d, 0x69, 0x6e, 0x5f,
  0x72, 0x75, 0x6e, 0x74, 0x69, 0x6d, 0x65, 0x5f, 0x76, 0x65, 0x72, 0x73,
  0x69, 0x6f, 0x6e, 0x00, 0x0f, 0x00, 0x00, 0x00, 0x54, 0x42, 0x00, 0x00,
  0x4c, 0x42, 0x00, 0x00, 0x2c, 0x42, 0x00, 0x00, 0x14, 0x42, 0x00, 0x00,
  0xf4, 0x41, 0x00, 0x00, 0x64, 0x03, 0x00, 0x00, 0x34, 0x03, 0x00, 0x00,
  0xa4, 0x00, 0x00, 0x00, 0x9c, 0x00, 0x00, 0x00, 0x94, 0x00, 0x00, 0x00,
  0x8c, 0x00, 0x00, 0x00, 0x84, 0x00, 0x00, 0x00, 0x7c, 0x00, 0x00, 0x00,
  0x5c, 0x00, 0x00, 0x00, 0x04, 0x00, 0x00, 0x00, 0x62, 0xbd, 0xff, 0xff,
  0x04, 0x00, 0x00, 0x00, 0x48, 0x00, 0x00, 0x00, 0x04, 0x00, 0x00, 0x00,
  0xdc, 0xff, 0xff, 0xff, 0x10, 0x00, 0x00, 0x00, 0x24, 0x00, 0x00, 0x00,
  0x00, 0x00, 0x06, 0x00, 0x08, 0x00, 0x04, 0x00, 0x06, 0x00, 0x00, 0x00,
  0x04, 0x00, 0x00, 0x00, 0x01, 0x00, 0x00, 0x00, 0xeb, 0x03, 0x00, 0x00,
  0x08, 0x00, 0x0c, 0x00, 0x08, 0x00, 0x04, 0x00, 0x08, 0x00, 0x00, 0x00,
  0x01, 0x00, 0x00, 0x00, 0x04, 0x00, 0x00, 0x00, 0x06, 0x00, 0x00, 0x00,
  0x32, 0x2e, 0x31, 0x31, 0x2e, 0x30, 0x00, 0x00, 0xb6, 0xbd, 0xff, 0xff,
  0x04, 0x00, 0x00, 0x00, 0x10, 0x00, 0x00, 0x00, 0x31, 0x2e, 0x31, 0x34,
  0x2e, 0x30, 0x00, 0x00, 0x00, 0x00, 0x00, 0x00, 0x00, 0x00, 0x00, 0x00,
  0x4c, 0xb8, 0xff, 0xff, 0x50, 0xb8, 0xff, 0xff, 0x54, 0xb8, 0xff, 0xff,
  0x58, 0xb8, 0xff, 0xff, 0x5c, 0xb8, 0xff, 0xff, 0xe6, 0xbd, 0xff, 0xff,
  0x04, 0x00, 0x00, 0x00, 0x80, 0x02, 0x00, 0x00, 0x32, 0xf8, 0x23, 0x04,
  0xef, 0xfe, 0xe2, 0x08, 0x4b, 0xf1, 0x33, 0xfb, 0xf5, 0xf0, 0xe2, 0xf9,
  0x5c, 0xe9, 0x34, 0xf1, 0xee, 0xe7, 0xe0, 0xe6, 0x73, 0xef, 0x3e, 0xf1,
  0xed, 0xe5, 0xe0, 0xeb, 0x7b, 0xe1, 0x3e, 0xde, 0xe9, 0xdf, 0xd4, 0xd4,
  0x7f, 0xe3, 0x41, 0xe9, 0xe0, 0xde, 0xd5, 0xda, 0x75, 0xeb, 0x46, 0xf1,
  0xe8, 0xee, 0xd7, 0xe0, 0x63, 0xe5, 0x37, 0xf4, 0xe7, 0xf3, 0xde, 0xf0,
  0x46, 0xe7, 0x30, 0xf1, 0xec, 0x02, 0xf8, 0xfe, 0x23, 0xde, 0x1d, 0xf2,
  0xe5, 0x07, 0xff, 0x08, 0xe9, 0xbf, 0xda, 0x3c, 0xe1, 0xcd, 0xd0, 0xfe,
  0xde, 0xc9, 0xd4, 0xe5, 0x06, 0xf1, 0xef, 0x0f, 0x23, 0xe2, 0xf7, 0xcf,
  0xd3, 0xb7, 0x1b, 0xc7, 0x20, 0xca, 0xcf, 0xd3, 0xe1, 0xba, 0x2b, 0xee,
  0xda, 0x9c, 0xe8, 0xdd, 0xc6, 0xd6, 0xc9, 0xb0, 0xf2, 0x02, 0xe2, 0xde,
  0xb1, 0xd0, 0xf6, 0xce, 0x27, 0xf1, 0x25, 0xce, 0xf5, 0xc7, 0xb7, 0xcc,
  0x05, 0x37, 0xfd, 0x59, 0x04, 0xfa, 0xd7, 0xf2, 0x2a, 0x35, 0x5c, 0x34,
  0x32, 0x43, 0x1a, 0x46, 0x35, 0x2b, 0x79, 0x4b, 0x4c, 0x7f, 0x43, 0xf6,
  0x02, 0x38, 0x17, 0x1f, 0xed, 0xf0, 0xaf, 0xe5, 0x17, 0x2b, 0x27, 0x10,
  0xe9, 0xf8, 0xa3, 0xcc, 0x2a, 0x38, 0x1e, 0x0e, 0xe8, 0xfd, 0x8e, 0xc9,
  0x41, 0x3d, 0x1e, 0x22, 0xd1, 0xf8, 0xa5, 0xd1, 0x41, 0x37, 0x19, 0x20,
  0xc3, 0xff, 0xb8, 0xed, 0x3b, 0x1c, 0x05, 0xfc, 0xd1, 0xf6, 0xd1, 0xfc,
  0x0e, 0x04, 0xe8, 0xf9, 0xd1, 0xf2, 0xe4, 0x05, 0xd5, 0xd9, 0xd2, 0xe3,
  0xdc, 0xe6, 0xf0, 0xf6, 0xbc, 0xa9, 0xca, 0xbc, 0xe2, 0xdb, 0xdf, 0xfd,
  0xa9, 0x81, 0xda, 0xbc, 0xd7, 0xdd, 0xe5, 0xda, 0xff, 0xe3, 0x25, 0xc9,
  0xfc, 0xaa, 0xeb, 0x9f, 0x12, 0xfb, 0x4b, 0xd5, 0x26, 0xbb, 0x0a, 0xba,
  0x13, 0xfa, 0x60, 0x10, 0x54, 0xf8, 0x21, 0xe9, 0xf3, 0x17, 0x34, 0x09,
  0x5a, 0x14, 0x4f, 0x0e, 0xdb, 0x0b, 0x13, 0x10, 0x2e, 0x29, 0x3d, 0x4d,
  0xaf, 0xe8, 0xec, 0xe1, 0x07, 0x26, 0x46, 0x5a, 0xa8, 0xd5, 0xd5, 0xd5,
  0xfd, 0x13, 0x39, 0x57, 0x94, 0xcf, 0xf0, 0xd1, 0xee, 0x06, 0x1f, 0x4d,
  0x98, 0xcc, 0xba, 0xc5, 0xa9, 0xde, 0xca, 0x1f, 0xb7, 0xc1, 0xa2, 0x97,
  0x81, 0xb2, 0x9a, 0xcb, 0xee, 0xb0, 0x4a, 0xbb, 0x61, 0xbe, 0x6c, 0xf8,
  0x2c, 0xe0, 0x7f, 0xce, 0x7b, 0xd1, 0x52, 0xe8, 0x2f, 0xee, 0x78, 0xd5,
  0x67, 0xc6, 0x3a, 0xdf, 0x24, 0xe2, 0x69, 0xe0, 0x49, 0xc4, 0x1d, 0xca,
  0x17, 0xd7, 0x58, 0xe8, 0x42, 0xc9, 0x02, 0xd8, 0xfe, 0xd9, 0x3d, 0xf6,
  0x33, 0xe1, 0xde, 0xe2, 0xf2, 0xe5, 0x1e, 0x0a, 0x16, 0xf8, 0xcd, 0xe1,
  0xd6, 0xeb, 0xff, 0x19, 0x09, 0x02, 0xa4, 0xe9, 0xb6, 0xe7, 0xe1, 0x0f,
  0xf2, 0xec, 0xc3, 0xd6, 0xc1, 0xca, 0xca, 0xf5, 0xd0, 0xe4, 0xcf, 0xdb,
  0xdc, 0x09, 0xf3, 0xea, 0xc8, 0x35, 0x04, 0x7f, 0xe3, 0x10, 0xe2, 0xc6,
  0xb2, 0x05, 0xcf, 0x4f, 0xb6, 0xf9, 0xc9, 0xd0, 0xb5, 0xf4, 0xd9, 0x3d,
  0xc7, 0xeb, 0xe0, 0xc7, 0xb3, 0x1d, 0x01, 0x5e, 0xbe, 0xee, 0xc8, 0xb5,
  0xd9, 0xf7, 0xfe, 0x0d, 0xd8, 0xcc, 0xdb, 0xb3, 0xe5, 0xe1, 0x21, 0x33,
  0xd8, 0xe2, 0xfa, 0xd0, 0xfe, 0x10, 0x23, 0x4c, 0xf0, 0xeb, 0xff, 0xe6,
  0x06, 0x15, 0x26, 0x22, 0xfd, 0x05, 0x0d, 0xfb, 0x20, 0x2b, 0x39, 0x13,
  0x33, 0xf7, 0x3d, 0xe5, 0x24, 0x14, 0x39, 0x34, 0x59, 0x5a, 0xf7, 0xf0,
  0xc6, 0xf2, 0xfc, 0x21, 0x53, 0x42, 0x01, 0xf0, 0xcd, 0xee, 0xef, 0x2f,
  0x43, 0x29, 0xd9, 0xec, 0xb9, 0xdf, 0xf4, 0x15, 0x45, 0x28, 0xd7, 0xfe,
  0xb5, 0xf7, 0xea, 0x1d, 0x4d, 0x37, 0xd0, 0xf8, 0xa3, 0xf9, 0xf0, 0x23,
  0x2f, 0x2c, 0xc4, 0xea, 0xbe, 0xf9, 0xf5, 0x0f, 0x0d, 0x09, 0xb1, 0xef,
  0xc1, 0x02, 0x04, 0x0a, 0xc6, 0xf1, 0xbc, 0xe6, 0xd2, 0xf8, 0xff, 0xf4,
  0xa4, 0xb2, 0xbb, 0xef, 0xd6, 0x09, 0xec, 0xe9, 0xa9, 0x81, 0xc1, 0xe9,
  0xdf, 0xfd, 0xf4, 0xcf, 0xc7, 0xe6, 0x05, 0xf0, 0x96, 0xc0, 0x8a, 0xc4,
  0xfa, 0x33, 0x23, 0x4a, 0xf0, 0x00, 0xcd, 0xe9, 0x00, 0x2a, 0x18, 0x25,
  0xd8, 0xff, 0xe4, 0xf0, 0xca, 0x33, 0x0b, 0x7e, 0xe1, 0xfd, 0xd6, 0x01,
  0xcf, 0x1e, 0xf4, 0x7f, 0xca, 0x3f, 0xce, 0x05, 0xc5, 0xe9, 0xe9, 0x30,
  0xca, 0xf9, 0xad, 0xdb, 0xae, 0x1f, 0x0f, 0x65, 0xea, 0x2e, 0xd6, 0xff,
  0xdc, 0x11, 0xf7, 0x3b, 0xdb, 0x23, 0xea, 0xf3, 0xb0, 0x22, 0x01, 0x7b,
  0xef, 0x25, 0xad, 0xf9, 0xc9, 0xfb, 0xde, 0x4a, 0xbc, 0x1b, 0xb3, 0xdc,
  0x72, 0xc0, 0xff, 0xff, 0x04, 0x00, 0x00, 0x00, 0x20, 0x00, 0x00, 0x00,
  0x5c, 0xfd, 0xff, 0xff, 0x00, 0x00, 0x00, 0x00, 0x6e, 0xff, 0xff, 0xff,
  0x00, 0x00, 0x00, 0x00, 0x67, 0xfe, 0xff, 0xff, 0x0e, 0x00, 0x00, 0x00,
  0x48, 0xff, 0xff, 0xff, 0x00, 0x00, 0x00, 0x00, 0x9e, 0xc0, 0xff, 0xff,
  0x04, 0x00, 0x00, 0x00, 0x80, 0x3e, 0x00, 0x00, 0x25, 0xe9, 0xf3, 0xf1,
  0x07, 0xc1, 0x02, 0x0c, 0x21, 0xea, 0x21, 0xf9, 0x19, 0xf7, 0x04, 0xf5,
  0x41, 0xe8, 0x0d, 0x14, 0x06, 0xec, 0x17, 0xf1, 0x12, 0xf8, 0xd9, 0x0a,
  0x29, 0xf7, 0xff, 0xe3, 0xf0, 0xfe, 0x15, 0xfd, 0x22, 0xe5, 0x05, 0x0e,
  0xe2, 0xf1, 0x1b, 0xfb, 0x1b, 0xd4, 0xde, 0x01, 0xd1, 0xce, 0xf3, 0x01,
  0x23, 0xdf, 0xe6, 0x04, 0x07, 0xd9, 0x0b, 0xfa, 0x2b, 0xd1, 0xdc, 0x20,
  0xe4, 0xfa, 0xf6, 0xfc, 0x18, 0xcf, 0x0f, 0x2a, 0x05, 0xf7, 0xf3, 0xef,
  0x1c, 0xc3, 0xf2, 0xf0, 0xcc, 0x02, 0x0c, 0xe6, 0x13, 0xd2, 0xdf, 0xee,
  0xeb, 0xec, 0x00, 0x14, 0xd2, 0x00, 0xfe, 0xfd, 0x02, 0xdf, 0x1f, 0xe4,
  0x03, 0xbf, 0x0d, 0xd5, 0xe9, 0xd4, 0x01, 0xff, 0x00, 0xc7, 0x16, 0x05,
  0x06, 0xe8, 0xe4, 0x0d, 0xe4, 0xf4, 0xde, 0x20, 0x0f, 0xe5, 0x15, 0xd8,
  0xfa, 0xdf, 0xee, 0x2c, 0x0f, 0xd5, 0x00, 0xf8, 0x0e, 0x01, 0xff, 0x25,
  0x01, 0xf5, 0x1f, 0x1d, 0x0e, 0xd6, 0xfe, 0x06, 0x21, 0xda, 0xde, 0x09,
  0x1d, 0xed, 0xf9, 0xed, 0xf7, 0xf7, 0xfd, 0x26, 0xf6, 0xff, 0x01, 0xd0,
  0xf6, 0x2a, 0xd7, 0x03, 0xf9, 0xae, 0xf8, 0x10, 0xee, 0xfd, 0xf5, 0xf9,
  0xea, 0xf6, 0x0c, 0xec, 0x40, 0xee, 0x32, 0xda, 0xf7, 0xd6, 0xf3, 0xe1,
  0xd9, 0xed, 0x2a, 0xee, 0xd3, 0xff, 0xe2, 0xd3, 0xfc, 0xe8, 0x26, 0xf1,
  0xf4, 0xe9, 0x17, 0xf7, 0xf0, 0x20, 0xeb, 0x04, 0xe5, 0x19, 0x1a, 0xfa,
  0xf6, 0xe9, 0xe3, 0x00, 0x18, 0x09, 0x21, 0x10, 0xf8, 0x14, 0xe8, 0x07,
  0xdb, 0xee, 0x15, 0xf0, 0x18, 0xd4, 0x17, 0x09, 0xeb, 0x09, 0x0a, 0x01,
  0xf0, 0xf5, 0x05, 0x01, 0xfe, 0x13, 0xea, 0x11, 0x19, 0x12, 0xdb, 0x0a,
  0xd7, 0xfe, 0xe5, 0x14, 0xfb, 0xf1, 0x2a, 0xf6, 0x0b, 0x22, 0x1b, 0x0d,
  0x04, 0xf0, 0xea, 0xfc, 0xe7, 0xe7, 0xfb, 0xfa, 0xe3, 0xee, 0xfb, 0x15,
  0x1a, 0xe7, 0xf1, 0xf3, 0x01, 0xf1, 0xfb, 0x18, 0x03, 0xd9, 0xef, 0x19,
  0xf8, 0xed, 0xf4, 0x16, 0xd0, 0xf4, 0x03, 0xea, 0x20, 0xd6, 0x2a, 0x1a,
  0xe9, 0xcd, 0xec, 0x0d, 0x16, 0xeb, 0x2b, 0x15, 0xf9, 0xfc, 0xf5, 0x01,
  0x11, 0xe7, 0xe9, 0x1f, 0x05, 0xe2, 0x20, 0xe5, 0x02, 0xf7, 0x1e, 0xf2,
  0x1c, 0x1d, 0xf7, 0x0f, 0xfa, 0xe6, 0xf8, 0x9b, 0xe5, 0xf5, 0xe5, 0x0d,
  0xd8, 0xea, 0x04, 0xe9, 0xe8, 0xea, 0x2a, 0xbd, 0x31, 0x08, 0xf6, 0xe7,
  0xe1, 0xf5, 0x1f, 0xfb, 0xe8, 0x04, 0xe8, 0xe7, 0xdc, 0xfa, 0xfb, 0xf9,
  0x00, 0x22, 0x24, 0xd1, 0xe6, 0xfe, 0xe7, 0xe0, 0x03, 0xef, 0xf6, 0x0f,
  0xd9, 0xd7, 0xdd, 0xf6, 0xec, 0x15, 0x07, 0xda, 0xed, 0x06, 0xf9, 0xf6,
  0xf4, 0x26, 0x0c, 0x1e, 0x02, 0xdf, 0x18, 0x08, 0xf1, 0xfd, 0xf0, 0xcd,
  0xdb, 0x00, 0x00, 0x07, 0x05, 0x10, 0x06, 0x0a, 0x12, 0x1e, 0xd1, 0xd6,
  0x07, 0x0f, 0xe7, 0xf1, 0xf1, 0x16, 0xff, 0x17, 0x01, 0xfe, 0x05, 0x18,
  0x1d, 0x11, 0xe7, 0xfd, 0xfe, 0xf6, 0xe0, 0x13, 0x07, 0xef, 0xf1, 0xd5,
  0xf4, 0x11, 0xe5, 0x0e, 0xe8, 0x07, 0xe0, 0xd1, 0x00, 0xfd, 0xf7, 0x13,
  0xf0, 0x11, 0x0a, 0xeb, 0xf6, 0xed, 0x1a, 0x0d, 0x0e, 0x04, 0xf6, 0x03,
  0x1c, 0xdf, 0x1e, 0x0b, 0xf4, 0xf1, 0xf3, 0xec, 0x22, 0xfc, 0xf5, 0xf6,
  0x2b, 0xe8, 0x00, 0x0b, 0x0a, 0xe5, 0xed, 0xe1, 0x2f, 0x01, 0x18, 0xfa,
  0xfb, 0xf0, 0x1c, 0x1f, 0x06, 0x0f, 0x0e, 0xd3, 0x05, 0x13, 0xf3, 0xd4,
  0xe7, 0xe8, 0x20, 0x2c, 0x07, 0xfc, 0x16, 0xf8, 0xea, 0x1b, 0xda, 0xf3,
  0x0a, 0xfc, 0x04, 0xfc, 0xce, 0x02, 0xff, 0x02, 0xbf, 0xe4, 0x0a, 0x0e,
  0xd7, 0xeb, 0xcf, 0x00, 0xe9, 0x12, 0x1c, 0x0b, 0xf7, 0x01, 0x09, 0x11,
  0xf1, 0xfb, 0x03, 0x0c, 0xdb, 0xdb, 0xdb, 0x09, 0xbd, 0xd8, 0xe4, 0x11,
  0xfc, 0xfb, 0x07, 0x1c, 0xe7, 0xdd, 0xdb, 0xec, 0xf2, 0xf0, 0xd9, 0x1d,
  0xd2, 0xe4, 0xeb, 0xf3, 0xee, 0x11, 0xe9, 0xf5, 0xd5, 0x15, 0xff, 0x19,
  0x12, 0xea, 0xf7, 0xfa, 0x16, 0xee, 0x08, 0xf4, 0xe2, 0x25, 0xea, 0x09,
  0xef, 0xf9, 0xe8, 0x25, 0x14, 0xea, 0xeb, 0xfc, 0xef, 0x0d, 0xfe, 0xff,
  0x04, 0xea, 0xf9, 0x0b, 0xfa, 0x26, 0x06, 0x29, 0xf6, 0x0b, 0xf7, 0x03,
  0x01, 0x02, 0xf5, 0xfa, 0x04, 0xf8, 0xeb, 0x02, 0xf0, 0x1a, 0xe7, 0x28,
  0x00, 0xf0, 0x0d, 0xe6, 0xff, 0x09, 0xe5, 0x30, 0x07, 0x21, 0xde, 0x06,
  0x0f, 0xeb, 0xe6, 0xf6, 0x1f, 0x04, 0xf5, 0xe8, 0x01, 0x10, 0xdd, 0x08,
  0x2b, 0x11, 0xfa, 0xed, 0x1d, 0xf3, 0x1e, 0xfb, 0xfa, 0xfa, 0x0d, 0x07,
  0xf6, 0xe1, 0x00, 0xe7, 0xec, 0x04, 0xfa, 0x52, 0xff, 0xe5, 0x18, 0x00,
  0xd6, 0x34, 0x0d, 0x1b, 0xec, 0x2d, 0x04, 0xf7, 0xb2, 0xea, 0x00, 0xe2,
  0xbe, 0x19, 0xef, 0xfc, 0xed, 0xf1, 0xfb, 0xf7, 0xe7, 0x01, 0xf1, 0x04,
  0xe9, 0x26, 0xee, 0xf3, 0xc2, 0x0b, 0x1b, 0x05, 0x03, 0xe6, 0xcb, 0x10,
  0xbd, 0x0a, 0xea, 0xfa, 0xec, 0xee, 0xf9, 0x29, 0xc1, 0xed, 0x03, 0x19,
  0xed, 0x03, 0xf1, 0x2d, 0xc9, 0x0f, 0xf3, 0xf7, 0xbe, 0xda, 0xff, 0xf9,
  0xbf, 0xf8, 0xf4, 0x05, 0xd0, 0x04, 0xe0, 0xf7, 0xe2, 0xf4, 0xd4, 0xff,
  0x08, 0x0d, 0x18, 0x23, 0xe0, 0xfc, 0xf8, 0xf7, 0xff, 0xe4, 0x18, 0xe9,
  0xd0, 0x04, 0xe2, 0x06, 0xf9, 0x20, 0xfe, 0xec, 0xe4, 0xfa, 0xe9, 0x23,
  0xdc, 0x0d, 0x24, 0xf5, 0xbf, 0xe7, 0xf8, 0x12, 0xf8, 0xfe, 0xdb, 0x0f,
  0xde, 0xf7, 0xe6, 0x1d, 0xf3, 0xf0, 0xf7, 0x04, 0xe5, 0x0b, 0xfa, 0xf8,
  0x05, 0xf1, 0xeb, 0xf7, 0xfd, 0x01, 0x06, 0x17, 0x14, 0xfa, 0x1d, 0x1a,
  0xfd, 0x1f, 0xf6, 0x04, 0x27, 0x1d, 0xe0, 0x02, 0xfc, 0xfc, 0x11, 0xe4,
  0xe2, 0xf8, 0x04, 0x0a, 0xf3, 0xda, 0x12, 0x09, 0xeb, 0xda, 0xfd, 0x1e,
  0xf9, 0x00, 0x00, 0xf1, 0xb1, 0x15, 0xf6, 0x01, 0xd5, 0xf6, 0xd0, 0xf8,
  0xe0, 0xdd, 0xf1, 0xf1, 0xd6, 0x14, 0x12, 0xf4, 0xb9, 0x25, 0xe4, 0xfc,
  0xdf, 0xfc, 0xe8, 0xec, 0xeb, 0x25, 0xd4, 0x23, 0xbb, 0x2a, 0xd4, 0xf1,
  0xc5, 0xfb, 0xe3, 0x14, 0xd0, 0xf5, 0x05, 0x28, 0xcd, 0x08, 0xee, 0x16,
  0xcb, 0xf1, 0xe5, 0x07, 0xc5, 0x15, 0x04, 0x05, 0xc9, 0xf0, 0x0d, 0x12,
  0xe1, 0xe6, 0xfa, 0x19, 0xde, 0x20, 0x0c, 0xed, 0xfb, 0x2e, 0xc8, 0x1b,
  0xd4, 0x22, 0xeb, 0x01, 0xfa, 0x0e, 0x00, 0x05, 0xf1, 0x02, 0x06, 0x1c,
  0xd8, 0xf4, 0xe9, 0x20, 0xea, 0x0c, 0xfd, 0xfc, 0xfb, 0x29, 0xe2, 0x12,
  0x0e, 0x02, 0xf6, 0x2b, 0x06, 0x01, 0x26, 0x19, 0xd8, 0x04, 0xfd, 0xf0,
  0xe2, 0xf9, 0xf4, 0x29, 0xde, 0x02, 0x01, 0x07, 0x06, 0xdc, 0x28, 0x18,
  0xf7, 0xf4, 0x17, 0xfe, 0xed, 0xf4, 0xea, 0x25, 0xdb, 0x08, 0xfd, 0x04,
  0x24, 0xf9, 0xe0, 0x1a, 0xf4, 0xd7, 0xe4, 0xfb, 0x26, 0x00, 0x0f, 0x1b,
  0x10, 0xe7, 0x35, 0xfa, 0x07, 0xf3, 0xdc, 0x07, 0x11, 0xfd, 0x04, 0xf4,
  0xf1, 0x04, 0xee, 0x29, 0x0e, 0x17, 0xe9, 0xdd, 0xf0, 0xec, 0x12, 0x23,
  0xeb, 0x06, 0x09, 0x03, 0xb3, 0x0e, 0x04, 0xd9, 0xa9, 0xe9, 0xeb, 0x05,
  0xd0, 0x2a, 0x00, 0x18, 0xb5, 0x0e, 0x0d, 0xea, 0xd7, 0x02, 0xe3, 0x12,
  0xc6, 0x1b, 0xe2, 0xfc, 0xd8, 0x11, 0x04, 0x21, 0xbd, 0x23, 0xe6, 0x15,
  0xb6, 0xfc, 0xd2, 0x1f, 0xde, 0x0e, 0xe4, 0xfb, 0xce, 0x29, 0xf9, 0x01,
  0xbf, 0x15, 0xff, 0x23, 0xec, 0x10, 0xfa, 0x0b, 0xd8, 0x02, 0x06, 0x0e,
  0xf9, 0xfa, 0xd5, 0x0e, 0xf1, 0x0b, 0x0a, 0xf6, 0xf1, 0x1c, 0xf6, 0x12,
  0xed, 0xf8, 0xed, 0x35, 0x0c, 0x2d, 0xea, 0x14, 0xf4, 0x2e, 0xfd, 0x14,
  0xf5, 0xe6, 0x09, 0x02, 0x09, 0x03, 0x1c, 0x09, 0xf1, 0x17, 0x19, 0x1f,
  0xec, 0x04, 0xf5, 0x2c, 0xfe, 0x29, 0x15, 0x05, 0xd8, 0x08, 0xe2, 0xfb,
  0x1d, 0x12, 0x09, 0x19, 0xc9, 0xfb, 0xec, 0x18, 0x0a, 0xec, 0x01, 0x09,
  0xfc, 0xd6, 0xf2, 0x3c, 0x0a, 0xfe, 0x00, 0x1e, 0xea, 0x16, 0xe0, 0xed,
  0x35, 0x0d, 0xdd, 0x16, 0xf6, 0xd6, 0x1d, 0x11, 0x21, 0x06, 0xfb, 0x02,
  0x00, 0x20, 0x05, 0x09, 0x07, 0x02, 0xfe, 0x1a, 0x1a, 0xee, 0x17, 0x0e,
  0xdf, 0x17, 0xfb, 0x06, 0xc1, 0xf8, 0x14, 0x09, 0xc1, 0xf2, 0xf6, 0xf7,
  0x90, 0x01, 0xfe, 0x0c, 0xdb, 0x25, 0xdf, 0x1f, 0xc0, 0x02, 0xd7, 0x06,
  0xd9, 0xf2, 0xe4, 0x07, 0xbc, 0x0c, 0x07, 0xfe, 0xf7, 0x29, 0xfb, 0xf5,
  0xb9, 0x20, 0xff, 0x03, 0xbc, 0x1f, 0xf7, 0x08, 0xf1, 0xff, 0x01, 0xf6,
  0xd8, 0x03, 0x0a, 0x15, 0xd5, 0x1d, 0xe0, 0xee, 0xd2, 0x24, 0x0a, 0x15,
  0xd8, 0x1d, 0xfa, 0xf9, 0xce, 0x0a, 0xe0, 0x18, 0xd4, 0xef, 0xfd, 0x02,
  0xe9, 0x17, 0x01, 0xdf, 0xd4, 0xf1, 0xfa, 0x1c, 0xe8, 0x05, 0xfe, 0x1f,
  0xeb, 0xf2, 0x05, 0x30, 0x03, 0x32, 0x0d, 0xf6, 0xe5, 0xf2, 0x0a, 0x36,
  0xe8, 0x09, 0x05, 0x16, 0xf0, 0x08, 0xf3, 0x2f, 0x10, 0xe8, 0xf9, 0x21,
  0xe0, 0x28, 0xf8, 0x21, 0xed, 0x07, 0xf1, 0x21, 0xda, 0x06, 0x11, 0x0d,
  0x07, 0x17, 0xfa, 0x18, 0xf1, 0x2c, 0xee, 0x2e, 0x0f, 0x1f, 0xe1, 0x07,
  0xf0, 0xff, 0xec, 0x11, 0x25, 0x19, 0x17, 0x17, 0x04, 0xe7, 0x36, 0x04,
  0x11, 0xe6, 0x11, 0x10, 0x0f, 0x11, 0xf2, 0x0b, 0xd5, 0x00, 0xec, 0x2e,
  0xf9, 0xe6, 0xcf, 0xf3, 0x03, 0x10, 0xcb, 0xf8, 0xdc, 0xfc, 0xe9, 0x19,
  0xd5, 0x26, 0x07, 0xfe, 0x9a, 0x10, 0xdd, 0x07, 0xd3, 0x17, 0xd6, 0x0e,
  0xe0, 0xe8, 0xe4, 0x0b, 0xe1, 0x10, 0xef, 0x0e, 0xde, 0xfe, 0xd5, 0x29,
  0xe5, 0xfe, 0x1c, 0x03, 0xd4, 0x04, 0xef, 0xfc, 0xc6, 0x1d, 0xfe, 0x07,
  0xd6, 0x02, 0xff, 0x11, 0xc9, 0xf8, 0xda, 0xfd, 0xd9, 0xef, 0xe4, 0xed,
  0xe7, 0xe9, 0xff, 0xfd, 0xbe, 0x1c, 0xfc, 0x1f, 0xd3, 0x02, 0x08, 0xfc,
  0xcd, 0x23, 0xde, 0x0c, 0xe3, 0x08, 0x02, 0xf7, 0xd7, 0xf7, 0xf1, 0x0f,
  0xf9, 0x2d, 0x0a, 0xea, 0xf4, 0x0d, 0x0c, 0x20, 0xeb, 0xfb, 0xfb, 0xf8,
  0x10, 0x08, 0xf7, 0x06, 0xf6, 0x24, 0x1a, 0xf6, 0x01, 0x04, 0xf7, 0x2e,
  0xfd, 0x02, 0x0c, 0xff, 0xfe, 0x17, 0x18, 0xfc, 0xeb, 0x0b, 0xf5, 0x10,
  0xe5, 0x08, 0x05, 0x11, 0x08, 0xe3, 0xf8, 0xec, 0xd0, 0x08, 0x08, 0x31,
  0xf6, 0x10, 0x12, 0xf7, 0xf5, 0x1a, 0x29, 0xef, 0x13, 0x11, 0xfc, 0x17,
  0xeb, 0xf6, 0x2b, 0x21, 0x12, 0x06, 0x12, 0x06, 0x02, 0xed, 0x23, 0xe9,
  0xe2, 0x1d, 0xe4, 0x34, 0x1c, 0xf9, 0xfe, 0x0c, 0xd9, 0xee, 0xfd, 0x02,
  0xd3, 0x17, 0xe8, 0xf3, 0xc1, 0xf7, 0xe7, 0x02, 0x99, 0x03, 0xed, 0x02,
  0xce, 0x10, 0xc6, 0x19, 0xaa, 0x19, 0x1e, 0x04, 0xc8, 0xea, 0xc3, 0x20,
  0xca, 0x07, 0x0b, 0x0b, 0xc3, 0x25, 0xd2, 0x32, 0xda, 0x07, 0x03, 0xf7,
  0xc8, 0xd5, 0x0c, 0xfa, 0xc2, 0xfa, 0xdf, 0xe4, 0xb5, 0xf8, 0xfd, 0xfb,
  0xc0, 0xf9, 0xf3, 0x1f, 0xd0, 0xe7, 0xf3, 0x0e, 0xdb, 0x02, 0xfc, 0x0a,
  0xf1, 0x00, 0xe2, 0x12, 0xf8, 0x08, 0xf6, 0x25, 0xe3, 0x30, 0x1c, 0xec,
  0xe2, 0xf4, 0x12, 0x2f, 0xfc, 0x0a, 0xe6, 0xfe, 0x1b, 0x26, 0x07, 0x23,
  0x17, 0x25, 0x25, 0xf5, 0x15, 0x1e, 0xf1, 0x1d, 0xe5, 0x0f, 0x0d, 0xe0,
  0x16, 0xf1, 0x0c, 0x01, 0x09, 0x28, 0xe3, 0x12, 0xe5, 0x03, 0xe4, 0x14,
  0x0c, 0xe4, 0xdb, 0x08, 0xd1, 0xe0, 0xfd, 0x3a, 0xe7, 0x03, 0x04, 0xee,
  0xfa, 0xfd, 0x24, 0x0b, 0x0e, 0x16, 0x2e, 0xeb, 0xf0, 0x29, 0x06, 0xef,
  0x1d, 0xef, 0x19, 0x00, 0xf9, 0x10, 0x4b, 0x11, 0x11, 0xfa, 0x0d, 0x16,
  0x06, 0xfd, 0x0e, 0x11, 0x08, 0xf8, 0xf5, 0x34, 0xf3, 0xe8, 0xf1, 0x08,
  0xcd, 0x06, 0x16, 0x0d, 0xd8, 0x21, 0xd8, 0xec, 0xd4, 0xe8, 0xe1, 0x17,
  0xca, 0x12, 0xd0, 0xd4, 0xe8, 0x05, 0xfe, 0x1c, 0xc4, 0x00, 0xe0, 0x03,
  0xc7, 0xec, 0xf1, 0x17, 0xe1, 0xf5, 0xf0, 0x16, 0xb0, 0xee, 0xf0, 0x07,
  0xa7, 0xdf, 0xfc, 0xed, 0xd5, 0xed, 0xe3, 0x02, 0xca, 0x17, 0x05, 0x03,
  0xd3, 0xf1, 0x0a, 0xfc, 0xde, 0x26, 0xed, 0x07, 0xc9, 0xd9, 0xfe, 0xfe,
  0xde, 0xe2, 0xef, 0x17, 0xe7, 0xfd, 0xee, 0x11, 0x0f, 0x07, 0x05, 0x02,
  0xd7, 0x0d, 0xeb, 0xed, 0xda, 0x14, 0xe6, 0x20, 0xf0, 0xf4, 0x04, 0xea,
  0x06, 0xf0, 0xed, 0x10, 0xd9, 0xfb, 0x03, 0x01, 0x26, 0x07, 0xe5, 0x0f,
  0xdf, 0x0c, 0x08, 0xfe, 0xf5, 0xf8, 0xf6, 0x2f, 0x14, 0x02, 0xe6, 0xf4,
  0xc5, 0xfe, 0x07, 0x28, 0xe1, 0xe1, 0x0f, 0xfc, 0xbd, 0x0c, 0x19, 0x1d,
  0x1e, 0x27, 0x07, 0xfe, 0xd8, 0xda, 0x20, 0x13, 0x14, 0x0c, 0xf4, 0xfe,
  0xea, 0xf7, 0xe6, 0x21, 0x04, 0x00, 0x0e, 0x13, 0xf1, 0xdf, 0x36, 0x0e,
  0x2f, 0xe1, 0x22, 0x0a, 0x0a, 0xdf, 0xf9, 0x07, 0xfe, 0x00, 0xf6, 0x3b,
  0xd6, 0x1e, 0xf5, 0x11, 0xb7, 0x1d, 0xf6, 0x18, 0xe2, 0x05, 0xeb, 0x13,
  0xbf, 0xe9, 0xea, 0x1d, 0xad, 0xdf, 0xe2, 0x0b, 0xb9, 0xd9, 0xd9, 0x2c,
  0xd1, 0xe9, 0xec, 0xf8, 0xba, 0xfd, 0xf0, 0x31, 0xac, 0x0e, 0xf5, 0xf1,
  0xcb, 0x16, 0xde, 0x18, 0xb7, 0xf1, 0x08, 0xff, 0xef, 0xea, 0xf9, 0x00,
  0xce, 0x07, 0x1c, 0x09, 0xc6, 0xd0, 0x0a, 0xfe, 0xcc, 0x1b, 0xf8, 0xf8,
  0xf5, 0xfa, 0x1c, 0x0b, 0xb5, 0x0b, 0xe5, 0x04, 0xe1, 0x07, 0xfd, 0x01,
  0xe8, 0x22, 0xff, 0x10, 0xd6, 0x1e, 0x12, 0x07, 0xe5, 0xf8, 0x11, 0x29,
  0xee, 0xf5, 0x15, 0xf1, 0x06, 0x1d, 0x12, 0x0a, 0xd9, 0x2b, 0x19, 0x0d,
  0x1b, 0x14, 0x02, 0x2d, 0xe9, 0x43, 0x1b, 0xf2, 0x01, 0x12, 0x28, 0x1c,
  0x08, 0xf7, 0x07, 0x04, 0xe2, 0x23, 0x0f, 0x2b, 0xeb, 0x18, 0xd7, 0xf6,
  0xd3, 0x1b, 0x07, 0x1a, 0xe1, 0x20, 0x07, 0xdd, 0xeb, 0x25, 0xf9, 0x00,
  0xec, 0x2d, 0x14, 0xf9, 0xde, 0x11, 0x00, 0x26, 0x1b, 0xde, 0x04, 0xf7,
  0x0e, 0xd7, 0x35, 0x06, 0x2b, 0x18, 0x10, 0x04, 0x12, 0xfe, 0x05, 0xf8,
  0xfc, 0x0f, 0xe0, 0x42, 0xec, 0xeb, 0xf8, 0xdd, 0xbc, 0x1c, 0xf0, 0x0f,
  0xd9, 0xdd, 0xec, 0xec, 0xd2, 0xec, 0xf9, 0xff, 0xc6, 0xfa, 0xed, 0xfd,
  0xa7, 0xea, 0xfb, 0x16, 0xd9, 0x14, 0x0c, 0xf7, 0xd9, 0x07, 0xeb, 0x32,
  0xbd, 0x12, 0x0e, 0xda, 0xb8, 0x0b, 0xe7, 0x1e, 0xd8, 0x02, 0x1c, 0x0f,
  0xe4, 0xf1, 0xff, 0xf0, 0xed, 0x0c, 0xff, 0x0d, 0xc5, 0x09, 0x04, 0x1b,
  0xc3, 0x0d, 0xe7, 0x05, 0xbc, 0x03, 0xfc, 0x09, 0xc3, 0xf0, 0x16, 0x07,
  0xdc, 0xde, 0x00, 0xfc, 0xe3, 0x1a, 0x24, 0xf6, 0xdd, 0xf8, 0x10, 0xdf,
  0xec, 0x0a, 0x25, 0x31, 0xee, 0xfb, 0xde, 0xf9, 0x0c, 0xd8, 0xed, 0x24,
  0xde, 0x30, 0xed, 0xef, 0x28, 0x03, 0xff, 0x41, 0xec, 0x20, 0xe1, 0xf3,
  0x00, 0x1a, 0xf2, 0x06, 0xe8, 0xfa, 0xf9, 0xf4, 0xf8, 0xf9, 0xe0, 0x16,
  0xd9, 0xf2, 0x17, 0xf6, 0xb1, 0xf1, 0xf0, 0x1f, 0xee, 0x22, 0xf9, 0xfd,
  0xe4, 0x0e, 0xea, 0x20, 0xdf, 0x09, 0x0d, 0xdb, 0xdc, 0x19, 0x33, 0x17,
  0xe9, 0xed, 0x15, 0xfd, 0x02, 0xf8, 0x22, 0x00, 0x15, 0x0a, 0x01, 0x05,
  0xf4, 0x1b, 0x14, 0x18, 0xdf, 0x11, 0xd7, 0x2f, 0xeb, 0x0d, 0xd8, 0x07,
  0xb5, 0x1b, 0xfa, 0x15, 0xc7, 0xf7, 0xd0, 0x00, 0xb7, 0x0e, 0xb8, 0x2c,
  0xb9, 0x07, 0xe3, 0x10, 0xda, 0xe3, 0xe1, 0x20, 0xcf, 0xfd, 0xfa, 0xd9,
  0xb9, 0xf5, 0xcb, 0x29, 0xb4, 0x0c, 0xef, 0xfa, 0xde, 0x0b, 0xdf, 0x1c,
  0xd4, 0x17, 0xe9, 0x13, 0xcf, 0xf1, 0x23, 0x19, 0xf9, 0x13, 0x15, 0xf0,
  0xce, 0xf5, 0x1c, 0xfb, 0xc4, 0x08, 0x0f, 0x03, 0xcc, 0xd2, 0xcf, 0xec,
  0xe4, 0xfc, 0xe7, 0x15, 0xe9, 0xec, 0x03, 0x0b, 0xd1, 0xf2, 0xf6, 0x0f,
  0x00, 0x06, 0x12, 0xff, 0xd7, 0xf6, 0xfb, 0x1e, 0xe2, 0xf5, 0x09, 0x06,
  0xe0, 0x1b, 0x00, 0x15, 0xd6, 0xf3, 0xfd, 0xfe, 0x05, 0x2f, 0xfe, 0x35,
  0xcd, 0x1f, 0x19, 0xee, 0x0e, 0xfb, 0x12, 0x3d, 0xe4, 0x00, 0x18, 0x03,
  0xd0, 0xff, 0xee, 0x07, 0xeb, 0xf8, 0xed, 0xd6, 0xdf, 0x0a, 0x0a, 0x21,
  0xfc, 0x03, 0xf6, 0xee, 0xd6, 0xff, 0xd5, 0x31, 0xeb, 0x24, 0xef, 0x0b,
  0xe7, 0x00, 0x0f, 0xe6, 0xec, 0x1c, 0xfe, 0x04, 0xff, 0x0f, 0x37, 0xff,
  0x15, 0xea, 0x08, 0x02, 0x10, 0x16, 0x09, 0x05, 0xea, 0xed, 0x1c, 0x1b,
  0x06, 0xed, 0x00, 0xee, 0xc7, 0x30, 0xfa, 0x0a, 0xce, 0x0a, 0xdb, 0xeb,
  0xcd, 0xf8, 0xe0, 0x2c, 0xb2, 0xf7, 0xf4, 0x00, 0xab, 0xf1, 0xea, 0x39,
  0xeb, 0x21, 0x11, 0xe8, 0xb9, 0x04, 0xcb, 0x20, 0xbe, 0x19, 0xed, 0x0b,
  0xbd, 0xf8, 0xd8, 0x07, 0xc9, 0x23, 0xf2, 0x05, 0xc7, 0xed, 0x03, 0x11,
  0xc2, 0xfb, 0xfc, 0x0d, 0xc3, 0xde, 0x1e, 0x06, 0xcd, 0xf4, 0xf7, 0x15,
  0xc0, 0xf1, 0xf2, 0x0e, 0xbd, 0x0e, 0xf8, 0x17, 0xd4, 0x10, 0x0f, 0x13,
  0xdd, 0xf9, 0x18, 0x16, 0xf0, 0x0f, 0xf5, 0xfb, 0xdc, 0x0e, 0xee, 0x01,
  0xcd, 0x07, 0x05, 0xff, 0x2a, 0xf6, 0x02, 0x24, 0x01, 0x37, 0x16, 0xe6,
  0x1b, 0x2a, 0x0c, 0x2e, 0xe0, 0x36, 0x1c, 0xf7, 0xf5, 0x10, 0x05, 0x2a,
  0xe4, 0xee, 0xf9, 0xef, 0xe2, 0xdd, 0x03, 0x1e, 0xe0, 0xed, 0x27, 0xef,
  0xed, 0xf4, 0xf2, 0x0a, 0xc9, 0x13, 0x01, 0xe8, 0xe1, 0xe4, 0x08, 0x1f,
  0xf9, 0x08, 0x17, 0xe4, 0xd4, 0xf2, 0x19, 0x32, 0x06, 0x03, 0xf6, 0xfe,
  0xf5, 0x20, 0x06, 0xe0, 0x14, 0x05, 0x24, 0xfb, 0x14, 0x09, 0xef, 0x12,
  0xf6, 0x03, 0x0a, 0x3c, 0xe5, 0xfd, 0x04, 0xf1, 0x04, 0x40, 0x04, 0x12,
  0xbb, 0x03, 0xc9, 0xf5, 0xd0, 0x21, 0xe9, 0x26, 0xa5, 0x03, 0x0d, 0xf4,
  0xc4, 0xdb, 0xc1, 0x26, 0xc7, 0x14, 0x00, 0xe6, 0xd2, 0xb9, 0xdf, 0x1d,
  0xc1, 0x19, 0xdc, 0x29, 0xb2, 0xcc, 0xd9, 0xfb, 0xcc, 0xfc, 0x08, 0xfb,
  0xbf, 0xde, 0xf6, 0x19, 0xe6, 0xfd, 0xfc, 0xf7, 0xa2, 0xe1, 0x07, 0x16,
  0xce, 0x09, 0x10, 0x08, 0xe3, 0xd9, 0xf4, 0x02, 0xbf, 0x01, 0xfc, 0xf1,
  0xd5, 0xea, 0xfd, 0x08, 0xe6, 0xf9, 0x09, 0x1b, 0xef, 0x1f, 0x01, 0xff,
  0xe4, 0x12, 0xf6, 0x19, 0xed, 0xff, 0xf8, 0xf8, 0xfe, 0x1e, 0xec, 0x40,
  0xf3, 0xf7, 0x16, 0xf5, 0x0c, 0xf1, 0xfc, 0x1c, 0xfa, 0xfd, 0xec, 0xfe,
  0x0e, 0x35, 0x25, 0x1a, 0xf2, 0x0a, 0x04, 0x01, 0xcd, 0xd8, 0x06, 0x2c,
  0xd9, 0x06, 0xed, 0xeb, 0xd6, 0xfe, 0xd6, 0x1d, 0xda, 0x0d, 0xf9, 0xef,
  0xe2, 0x13, 0xe9, 0x09, 0xfd, 0x0f, 0x1c, 0xe1, 0xcf, 0xed, 0x17, 0x03,
  0xd4, 0x11, 0x14, 0xe9, 0x1a, 0x07, 0x30, 0x08, 0x14, 0xfe, 0x13, 0xf8,
  0x03, 0xe2, 0xf4, 0x00, 0x09, 0x32, 0x0c, 0x3d, 0xfd, 0x0b, 0xdf, 0xf9,
  0xdb, 0xff, 0xf0, 0x16, 0xc2, 0xf3, 0xd7, 0xdf, 0xd6, 0x25, 0xea, 0x26,
  0xc4, 0x01, 0xd9, 0x01, 0xcc, 0xfe, 0xd7, 0x29, 0xee, 0x17, 0xec, 0xdf,
  0xd4, 0xd1, 0xd7, 0x2d, 0xde, 0x1a, 0x06, 0xfd, 0xeb, 0xd5, 0xe0, 0x0b,
  0xea, 0x11, 0x10, 0x06, 0xe7, 0x07, 0xef, 0x26, 0xe8, 0x0a, 0xf9, 0x0b,
  0xba, 0xdf, 0x16, 0x13, 0xc0, 0xee, 0x04, 0x06, 0xe5, 0xea, 0xf5, 0x0e,
  0xcf, 0xf5, 0xe9, 0xfe, 0xf1, 0xf6, 0xe8, 0x0a, 0xc9, 0x18, 0xe7, 0x03,
  0xf8, 0xf4, 0xca, 0xf6, 0xe3, 0xf0, 0x19, 0x23, 0xfb, 0x05, 0x27, 0xf3,
  0x0b, 0x14, 0x08, 0x19, 0xeb, 0xf7, 0xe9, 0xfc, 0x32, 0x0d, 0x10, 0x4e,
  0x07, 0x2a, 0x24, 0xf4, 0xe2, 0xf3, 0xdd, 0x3f, 0xda, 0x10, 0xe2, 0x17,
  0xe9, 0xf7, 0xe7, 0x3c, 0xee, 0xed, 0x0f, 0x0a, 0xe6, 0xdf, 0x05, 0x15,
  0xeb, 0x01, 0xe4, 0xf0, 0xcd, 0x23, 0xe7, 0x22, 0x07, 0x12, 0x24, 0xf1,
  0xcf, 0x0e, 0x25, 0x26, 0xe5, 0x0d, 0xfb, 0x02, 0x0e, 0xdd, 0x2a, 0x08,
  0x00, 0xff, 0xf1, 0xff, 0xe3, 0xd6, 0x19, 0x07, 0xec, 0x07, 0xdf, 0x47,
  0x02, 0xea, 0xea, 0xec, 0xaf, 0x24, 0xf3, 0x1a, 0xdc, 0x05, 0xdc, 0x18,
  0xb5, 0xfd, 0xaf, 0x16, 0xca, 0x00, 0xee, 0xf2, 0xcf, 0xf0, 0xdd, 0x36,
  0xf2, 0x26, 0xd0, 0xe1, 0xde, 0xd2, 0xfc, 0x2d, 0xc0, 0x21, 0x10, 0xfe,
  0xad, 0xd2, 0xb8, 0x23, 0xf2, 0x19, 0x09, 0x02, 0xd3, 0xf3, 0x1b, 0x02,
  0xbc, 0x08, 0xf6, 0x12, 0xb7, 0xe9, 0xf5, 0x07, 0xd4, 0xfe, 0x00, 0xeb,
  0xa8, 0xdd, 0xc9, 0x06, 0xcb, 0x26, 0x15, 0x0e, 0xcc, 0xee, 0xd0, 0x13,
  0xdd, 0xf1, 0x07, 0x28, 0xed, 0x21, 0xf1, 0xe6, 0xe2, 0xf1, 0xf5, 0x04,
  0xfa, 0xd8, 0x16, 0xf1, 0x12, 0x09, 0x14, 0x09, 0xcb, 0x20, 0x1f, 0x07,
  0xf7, 0x09, 0xf2, 0x2c, 0xe5, 0x22, 0x16, 0x05, 0x11, 0xf0, 0x00, 0x32,
  0xd4, 0xfa, 0x17, 0xec, 0xdf, 0x28, 0xec, 0x32, 0xf3, 0xf6, 0xf4, 0xfd,
  0xf7, 0xe6, 0xe7, 0x28, 0xe6, 0xed, 0x06, 0xea, 0xda, 0x18, 0xf1, 0x21,
  0xfe, 0xf1, 0x04, 0xdd, 0xd6, 0xfc, 0x18, 0xf9, 0xd4, 0xfe, 0x14, 0xfb,
  0x0e, 0x06, 0x1b, 0x25, 0xf8, 0xf3, 0x06, 0x03, 0xf0, 0x0e, 0xd6, 0x04,
  0xea, 0x14, 0xf3, 0x4b, 0xe6, 0x15, 0xd8, 0x0d, 0xda, 0x15, 0xf2, 0x1b,
  0xd3, 0xfc, 0xc0, 0x0a, 0xa7, 0x12, 0xde, 0x0c, 0xd7, 0xf1, 0xd1, 0xeb,
  0xd1, 0xe0, 0xf1, 0x36, 0xd0, 0x06, 0x06, 0x12, 0xd5, 0xf5, 0xe7, 0x1c,
  0xbc, 0x11, 0xf3, 0xf2, 0xa1, 0xf9, 0xff, 0x27, 0xe9, 0xde, 0x04, 0x19,
  0xc1, 0xe7, 0x0f, 0x18, 0xeb, 0x07, 0xf9, 0x0c, 0xbe, 0xe4, 0x0f, 0x13,
  0xdd, 0x28, 0x02, 0x15, 0xb7, 0xd7, 0xe6, 0x1c, 0xaf, 0xf0, 0xf3, 0xf8,
  0xf1, 0xe9, 0xf4, 0x11, 0xee, 0xe6, 0xf6, 0xef, 0xf0, 0xee, 0x1a, 0xfe,
  0xf6, 0x12, 0xf7, 0x31, 0xd7, 0x0c, 0x15, 0xf8, 0x1b, 0x09, 0x0f, 0x32,
  0xf6, 0xf9, 0xd8, 0xf1, 0xfc, 0x10, 0x10, 0x32, 0x0d, 0x0c, 0x25, 0xee,
  0xf8, 0x22, 0x12, 0x4a, 0xe4, 0xea, 0xd4, 0x0c, 0xe3, 0x08, 0xff, 0x1a,
  0xe9, 0xf0, 0xed, 0x06, 0xcd, 0x14, 0x05, 0x36, 0xcb, 0x06, 0x01, 0xdd,
  0xe8, 0x2a, 0x09, 0x20, 0xd3, 0x1c, 0xff, 0xec, 0xce, 0x16, 0xe0, 0x09,
  0x03, 0x1a, 0xe9, 0xe6, 0x15, 0xe9, 0x0f, 0xff, 0xf5, 0x21, 0xef, 0xe0,
  0x2e, 0x1d, 0xf1, 0x0f, 0xea, 0x2e, 0x1c, 0x51, 0x0d, 0x05, 0xdf, 0xee,
  0xcc, 0x27, 0xe5, 0x20, 0xc2, 0x11, 0xd8, 0xe8, 0xde, 0xf8, 0xea, 0x0d,
  0xd3, 0x01, 0xad, 0x02, 0xc6, 0xe2, 0xc0, 0x2c, 0xc1, 0xe0, 0xee, 0xea,
  0xb8, 0xdb, 0xf1, 0x33, 0xe9, 0x29, 0xeb, 0x01, 0xc8, 0xe6, 0xf0, 0x29,
  0xf7, 0xfa, 0xdd, 0x0b, 0xc9, 0xf3, 0x04, 0x0a, 0xdc, 0x21, 0xff, 0x08,
  0xdd, 0x0d, 0x01, 0x0a, 0xb8, 0x08, 0xf2, 0xfe, 0xdc, 0xcf, 0xef, 0x00,
  0xc8, 0xeb, 0x0a, 0x0c, 0xee, 0xdf, 0xef, 0xfe, 0xec, 0xea, 0xfa, 0x35,
  0xcb, 0xe5, 0x16, 0xf2, 0xde, 0x24, 0xfb, 0x04, 0xe8, 0xfd, 0x0c, 0xe2,
  0x14, 0x1d, 0xf8, 0x05, 0xfc, 0x24, 0xfb, 0x05, 0x23, 0xf5, 0x01, 0x36,
  0xec, 0xfb, 0x08, 0xe3, 0xeb, 0xe9, 0xf6, 0x3b, 0xe7, 0xfb, 0xe9, 0x06,
  0xda, 0x01, 0xdd, 0x3b, 0xe3, 0xc6, 0x1a, 0x01, 0xe8, 0x05, 0x04, 0x2e,
  0xe7, 0x03, 0x03, 0xe9, 0xda, 0x0b, 0x19, 0x16, 0xd3, 0x13, 0x15, 0x04,
  0xf8, 0x05, 0xeb, 0x2b, 0xdc, 0xf8, 0x1a, 0xfb, 0x1c, 0x21, 0x23, 0xf8,
  0xe1, 0xe5, 0xf5, 0xef, 0xfd, 0xf2, 0x1e, 0x15, 0xfe, 0x02, 0x1d, 0x3f,
  0xf0, 0xf7, 0xda, 0xfc, 0xbf, 0x18, 0x13, 0x13, 0xdb, 0xde, 0xfa, 0x09,
  0xe9, 0xef, 0xc7, 0x1c, 0xc5, 0x24, 0xe5, 0x20, 0xca, 0xd1, 0xda, 0x43,
  0xfe, 0xf3, 0xf5, 0x0a, 0xcb, 0xea, 0xc9, 0x38, 0xce, 0x25, 0xe7, 0x11,
  0xce, 0xf6, 0xc3, 0x36, 0xc9, 0x19, 0x04, 0x02, 0xdc, 0xe5, 0xed, 0x2d,
  0xe7, 0x22, 0xdd, 0x2e, 0xc5, 0xce, 0xe5, 0x0f, 0xd5, 0x0a, 0xc9, 0x1a,
  0xc1, 0xc9, 0xf5, 0x17, 0xce, 0x2a, 0xce, 0x00, 0xe2, 0xc3, 0xe4, 0x01,
  0x11, 0xf1, 0xf2, 0x28, 0xec, 0xfa, 0x10, 0xfb, 0x01, 0x12, 0x13, 0x30,
  0xc5, 0xf8, 0xeb, 0xee, 0x0f, 0x06, 0x17, 0x0f, 0xe2, 0x0f, 0x22, 0xea,
  0x0f, 0x16, 0x09, 0x37, 0xf1, 0xff, 0xee, 0xdb, 0xe8, 0xe5, 0xf2, 0x24,
  0xf8, 0xea, 0x22, 0x0e, 0xce, 0xfc, 0xdb, 0x2a, 0xcf, 0x02, 0x17, 0xfc,
  0xd1, 0x23, 0x16, 0x1a, 0x00, 0xd4, 0x02, 0xe1, 0xd7, 0xe4, 0xfb, 0x1e,
  0x06, 0x04, 0x20, 0xf5, 0xf3, 0xf2, 0xf5, 0x1d, 0xf6, 0x22, 0x0d, 0xed,
  0x0e, 0x24, 0xf8, 0xf3, 0xf3, 0xeb, 0x12, 0x05, 0xe5, 0x21, 0xe4, 0x05,
  0xfa, 0x14, 0x21, 0x41, 0x00, 0xe0, 0xde, 0x18, 0xe6, 0x29, 0xc6, 0x38,
  0xe2, 0xfe, 0xe8, 0xfb, 0xc7, 0xfd, 0xf5, 0x3d, 0xdd, 0xef, 0xf8, 0xf8,
  0xdb, 0xe5, 0xba, 0x3f, 0xe5, 0xe9, 0xf3, 0xe0, 0xd7, 0xe2, 0xb8, 0x4e,
  0xdd, 0xe6, 0xe8, 0xeb, 0xb9, 0xbb, 0xb5, 0x28, 0xd6, 0xe4, 0xda, 0xef,
  0xd3, 0xfa, 0xca, 0x39, 0xe9, 0xfd, 0xf6, 0x0e, 0xc9, 0xdd, 0xf8, 0x0e,
  0xc6, 0x0d, 0xd1, 0xf3, 0xea, 0xb9, 0x03, 0x10, 0xd2, 0xfb, 0xfd, 0x0c,
  0xbe, 0xdb, 0xe2, 0x1e, 0xfa, 0xf9, 0xf4, 0x0b, 0xc4, 0x06, 0x15, 0xfd,
  0x16, 0xea, 0xea, 0x15, 0xf1, 0xe6, 0xe4, 0xf5, 0xf5, 0x04, 0xf7, 0x0a,
  0x08, 0x0b, 0xfb, 0xfb, 0x19, 0x02, 0x0e, 0x23, 0xf9, 0x0b, 0x06, 0x0b,
  0xe9, 0x11, 0x16, 0x1c, 0xf6, 0xdf, 0x10, 0x11, 0xca, 0xf8, 0xd4, 0x24,
  0xe2, 0xf8, 0xea, 0x01, 0xdf, 0xdb, 0xe6, 0x2b, 0xea, 0xfc, 0xf1, 0xf2,
  0xe3, 0xd9, 0x17, 0x3a, 0xf5, 0xe7, 0xea, 0xf1, 0x12, 0xf1, 0xf3, 0x01,
  0xe0, 0xf4, 0x00, 0xf3, 0x23, 0x02, 0xf9, 0xf3, 0x04, 0xee, 0xfc, 0x01,
  0x11, 0xfe, 0x0b, 0xfa, 0x03, 0x1d, 0xda, 0x57, 0x0d, 0x04, 0xe9, 0x19,
  0xb8, 0x26, 0xfb, 0x3c, 0xe0, 0x21, 0xe9, 0xe8, 0xbc, 0xf1, 0xd3, 0x39,
  0xd6, 0xed, 0xbf, 0xe7, 0xcf, 0xdd, 0xe6, 0x59, 0xe2, 0x1c, 0xfe, 0xfd,
  0xad, 0xef, 0xda, 0x62, 0xe8, 0xff, 0xe3, 0x00, 0xbf, 0xe3, 0xfb, 0x4d,
  0xdd, 0x11, 0xf9, 0xfb, 0xdc, 0xe8, 0x18, 0x40, 0xe2, 0xe2, 0xbd, 0x03,
  0xa6, 0xf7, 0xfe, 0x30, 0xb6, 0xd7, 0xca, 0xeb, 0xd0, 0xd6, 0xda, 0x2a,
  0xc3, 0x0e, 0xe7, 0x0f, 0xe3, 0x08, 0x09, 0x1d, 0xfe, 0x05, 0xf4, 0x0a,
  0xe7, 0x07, 0xda, 0x16, 0xdf, 0xfb, 0xec, 0x0b, 0xd4, 0xf8, 0xde, 0x11,
  0x07, 0xe5, 0x09, 0x06, 0xbf, 0x18, 0xee, 0xfc, 0x21, 0xfd, 0xda, 0x0f,
  0xe3, 0xfb, 0xfd, 0x14, 0xf1, 0xfb, 0xfa, 0x1b, 0x0b, 0x02, 0x08, 0x01,
  0xe1, 0x0a, 0xde, 0x19, 0xf5, 0x1d, 0x11, 0x14, 0xdd, 0x17, 0x0b, 0x22,
  0xe8, 0x14, 0x0b, 0xf3, 0x18, 0x16, 0xf0, 0x20, 0xdc, 0x0b, 0x1f, 0xfc,
  0x03, 0xfb, 0xe7, 0x06, 0xe2, 0xf9, 0x08, 0x0b, 0x1b, 0xdd, 0xf0, 0x18,
  0x0e, 0xe0, 0x01, 0x01, 0xe4, 0xf9, 0xe9, 0x06, 0xcd, 0x02, 0x03, 0x52,
  0x25, 0xe2, 0xe8, 0x1a, 0xc9, 0x1f, 0x23, 0x3d, 0xd5, 0x01, 0x17, 0x0f,
  0xbb, 0x15, 0x07, 0x4e, 0xdf, 0xe6, 0x0d, 0x08, 0xae, 0xf4, 0x0e, 0x6a,
  0xf6, 0xda, 0x2a, 0xf0, 0xcf, 0xd9, 0x17, 0x65, 0xd1, 0x16, 0x35, 0x1a,
  0xd7, 0xea, 0x16, 0x47, 0xd6, 0x0a, 0x1c, 0x25, 0xcc, 0xef, 0x18, 0x35,
  0xee, 0x24, 0x15, 0x15, 0xc7, 0xb8, 0x1a, 0x21, 0xba, 0x1c, 0x0e, 0x0d,
  0xc3, 0xec, 0x0f, 0x25, 0xd0, 0xe6, 0x0d, 0x12, 0xb7, 0xe7, 0xfc, 0x22,
  0xea, 0xf9, 0x06, 0x10, 0xe7, 0xf0, 0x37, 0x12, 0xf8, 0xef, 0xfd, 0x15,
  0xf5, 0x0e, 0x15, 0x13, 0x16, 0x11, 0x13, 0x10, 0xee, 0xea, 0x1a, 0xfb,
  0xfe, 0xf2, 0xf7, 0x23, 0xe6, 0xed, 0x04, 0x01, 0xc8, 0xfe, 0x15, 0x29,
  0xc1, 0x10, 0x19, 0x1f, 0xc2, 0xf4, 0xdd, 0x13, 0xe3, 0x0d, 0xf0, 0x04,
  0xd7, 0xfb, 0x03, 0x2b, 0xf4, 0x04, 0x16, 0x1a, 0xec, 0xf0, 0x0d, 0x32,
  0xe5, 0xee, 0xf1, 0x0e, 0x18, 0xe7, 0x04, 0x30, 0x12, 0x07, 0xf0, 0xef,
  0x24, 0x13, 0xf6, 0x01, 0x02, 0x28, 0xfc, 0xff, 0x02, 0x07, 0xe6, 0xe4,
  0xdb, 0x36, 0x16, 0x55, 0xf8, 0xfb, 0x16, 0xe6, 0xa6, 0x11, 0x22, 0x68,
  0xf2, 0xea, 0x0e, 0xe5, 0xae, 0x1a, 0x2d, 0x61, 0xd3, 0x1c, 0x0a, 0xec,
  0xb6, 0x09, 0x36, 0x67, 0xfb, 0xe3, 0x2e, 0xef, 0xb7, 0x14, 0x2a, 0x5a,
  0xf6, 0xf8, 0x41, 0xe4, 0xc7, 0xeb, 0x37, 0x40, 0xd7, 0xfc, 0x3d, 0x0c,
  0xb4, 0x11, 0x49, 0x38, 0xb8, 0xf7, 0x21, 0x09, 0xbd, 0xef, 0x2b, 0x26,
  0xe7, 0x01, 0x1c, 0xf6, 0xc8, 0xfd, 0x23, 0x28, 0xef, 0xfa, 0x16, 0xf6,
  0xcb, 0xd7, 0x1a, 0x26, 0x02, 0x25, 0x32, 0xf3, 0xd3, 0xfe, 0x3b, 0x29,
  0xfd, 0xeb, 0x35, 0xfc, 0xe7, 0xf1, 0x1f, 0x06, 0xf3, 0xf4, 0x2d, 0xeb,
  0xbc, 0x11, 0x0e, 0x31, 0xf7, 0xf4, 0x31, 0x07, 0xba, 0xec, 0x27, 0x10,
  0xe6, 0x07, 0x0e, 0x15, 0xc1, 0xff, 0x13, 0x00, 0xba, 0xf7, 0xec, 0x1c,
  0xe6, 0xe2, 0x1d, 0x28, 0x03, 0xe3, 0xff, 0x3a, 0xff, 0xff, 0x2b, 0xfc,
  0x04, 0xfa, 0xff, 0x28, 0xfa, 0xe8, 0x0c, 0x13, 0xef, 0xdb, 0x0f, 0x29,
  0xf4, 0xd6, 0x0d, 0xdc, 0x12, 0xde, 0x17, 0xfb, 0x0a, 0x27, 0x0a, 0xff,
  0x07, 0xf4, 0x1b, 0xf0, 0xf7, 0x18, 0x10, 0xe6, 0xfb, 0x07, 0x04, 0x14,
  0x17, 0x26, 0xe9, 0x06, 0xd0, 0xee, 0xf7, 0x09, 0xfe, 0x04, 0x14, 0x0c,
  0x12, 0xfc, 0xe0, 0x0b, 0xf0, 0xea, 0xf4, 0xf0, 0x19, 0x06, 0x0d, 0x06,
  0xf0, 0xf1, 0x18, 0xfc, 0xf1, 0x0f, 0x09, 0xea, 0xf7, 0x01, 0xd0, 0xff,
  0xe2, 0xf4, 0x09, 0xe2, 0x0b, 0x01, 0x17, 0xfb, 0xf7, 0x01, 0x13, 0xea,
  0x00, 0x11, 0x11, 0x1c, 0xd7, 0xf0, 0xfd, 0xeb, 0xdd, 0x0f, 0xfd, 0x10,
  0xe8, 0x05, 0x08, 0x26, 0x13, 0x21, 0xdf, 0x14, 0xe5, 0xfd, 0xea, 0xfc,
  0xd7, 0x2b, 0xe2, 0x0d, 0x05, 0x1a, 0x08, 0xe6, 0x01, 0xeb, 0x1c, 0xe6,
  0xe9, 0x13, 0xdb, 0xfc, 0xda, 0x00, 0xf4, 0xfe, 0xfc, 0x20, 0xdf, 0x0a,
  0x16, 0x0f, 0x18, 0xfa, 0xfd, 0xf0, 0x00, 0xe1, 0xf7, 0x14, 0xf6, 0x24,
  0x00, 0x1a, 0x0d, 0xfd, 0x03, 0x28, 0x00, 0xf6, 0xf1, 0x0b, 0x18, 0x07,
  0xf8, 0xea, 0xef, 0xe4, 0xe8, 0x08, 0xd5, 0xf1, 0x10, 0x1f, 0xf7, 0x06,
  0x06, 0x01, 0xe4, 0xef, 0xf5, 0xe5, 0x15, 0xf3, 0xf1, 0x0b, 0xda, 0xf8,
  0xf8, 0xff, 0xd5, 0x0b, 0xfb, 0x0a, 0x08, 0x07, 0xf6, 0x1c, 0xfc, 0x02,
  0xfb, 0xd5, 0x14, 0xf8, 0xf5, 0xe3, 0x02, 0x01, 0xd6, 0xed, 0x00, 0x09,
  0x16, 0xdb, 0x07, 0x00, 0x00, 0xeb, 0xf8, 0xf7, 0xf1, 0x02, 0x04, 0x11,
  0x14, 0x12, 0x1f, 0x0b, 0xfa, 0xe5, 0x10, 0x05, 0x04, 0x1d, 0xdb, 0x1e,
  0xe7, 0xe7, 0xff, 0xf9, 0x0d, 0x00, 0x0f, 0xf3, 0xe6, 0xe3, 0x0b, 0x0e,
  0xfd, 0x15, 0xf6, 0x01, 0xeb, 0xf9, 0xf0, 0xf4, 0x01, 0x22, 0x06, 0xfc,
  0x14, 0x03, 0xe4, 0x0e, 0xe5, 0x1e, 0xd6, 0xf7, 0x09, 0xdd, 0x18, 0x0a,
  0xe4, 0xfe, 0x14, 0x01, 0x05, 0xf2, 0x1b, 0xf8, 0xee, 0x00, 0x28, 0xf8,
  0xe6, 0xff, 0x0b, 0xec, 0xd9, 0x02, 0x01, 0xe5, 0xe1, 0x16, 0xf4, 0xee,
  0xe5, 0x02, 0xde, 0xf8, 0x0a, 0xd8, 0x12, 0xf1, 0x1b, 0xf5, 0xe3, 0x03,
  0x20, 0xf0, 0x0f, 0x17, 0xe6, 0x0f, 0xef, 0xec, 0x01, 0x2d, 0xf5, 0xf1,
  0xf0, 0x0f, 0x10, 0x09, 0x0c, 0x0c, 0xd7, 0xf8, 0xe6, 0xdf, 0xee, 0x06,
  0x17, 0xef, 0x04, 0xfd, 0x03, 0x0c, 0xde, 0x0c, 0x04, 0x10, 0x21, 0x0e,
  0xfd, 0x0f, 0xf0, 0x02, 0x00, 0xf5, 0x0e, 0x11, 0xef, 0x1c, 0xdd, 0xf7,
  0xeb, 0x26, 0xf9, 0xea, 0x08, 0xe6, 0x22, 0x06, 0x0d, 0x0d, 0x0a, 0x22,
  0xf2, 0x13, 0xd6, 0xf3, 0x22, 0x09, 0xdd, 0x29, 0x0a, 0x0b, 0xfd, 0x08,
  0xf3, 0x0c, 0x04, 0xf1, 0x0f, 0x13, 0x15, 0x09, 0x14, 0xde, 0x01, 0xff,
  0x05, 0xf1, 0x02, 0xff, 0xef, 0x1c, 0xfc, 0xf5, 0x0b, 0x0d, 0x0d, 0x06,
  0xf6, 0xee, 0x0e, 0xf2, 0x0d, 0x10, 0xd5, 0xf3, 0x0a, 0x07, 0xe4, 0xe9,
  0xf3, 0x0f, 0xe7, 0xec, 0xfb, 0xed, 0xe1, 0x10, 0xfa, 0xef, 0x17, 0x18,
  0xf9, 0x00, 0xf9, 0x1d, 0xf9, 0xd5, 0xf4, 0x29, 0xf4, 0xfa, 0xd7, 0xee,
  0xf7, 0xe4, 0xfe, 0x0c, 0xee, 0x15, 0x07, 0x00, 0xf6, 0x1c, 0x15, 0xfa,
  0xfc, 0x10, 0x08, 0x0d, 0xef, 0xf7, 0xf2, 0x18, 0xf6, 0x08, 0x06, 0xf6,
  0x15, 0xf2, 0xef, 0xef, 0xf7, 0xf8, 0x01, 0xf3, 0xf0, 0x20, 0xff, 0xf8,
  0x02, 0x01, 0xee, 0x03, 0x04, 0x31, 0x07, 0x02, 0xfb, 0x16, 0xef, 0x05,
  0xef, 0x20, 0x19, 0xfe, 0x13, 0xfd, 0x0a, 0xf7, 0xff, 0xe3, 0xf5, 0xfd,
  0xf5, 0xfb, 0xe7, 0xe1, 0xf9, 0xfc, 0xe9, 0xe7, 0xfd, 0x02, 0xf0, 0x0e,
  0xf6, 0x03, 0xdb, 0xee, 0xeb, 0x17, 0x27, 0x0a, 0x0d, 0xfe, 0xfa, 0x0b,
  0x2b, 0xf6, 0x12, 0x03, 0xeb, 0x12, 0xee, 0xff, 0x21, 0x19, 0x07, 0x09,
  0x04, 0xf8, 0x05, 0x09, 0xff, 0x0d, 0xef, 0xf8, 0x15, 0xfd, 0xf0, 0xfa,
  0x19, 0xda, 0x0a, 0xf6, 0x16, 0xfe, 0xf1, 0x0b, 0x0d, 0x04, 0xf4, 0xfb,
  0x03, 0xfe, 0x01, 0x0c, 0x13, 0x08, 0x15, 0x26, 0x1d, 0xfe, 0xe8, 0xff,
  0xf7, 0xdc, 0x24, 0x12, 0xf9, 0x00, 0xd8, 0x26, 0xf2, 0xf7, 0xfe, 0x09,
  0xfc, 0x18, 0x19, 0x11, 0x06, 0xff, 0x01, 0x0a, 0x14, 0x04, 0xe8, 0x12,
  0x10, 0xfd, 0x25, 0x0b, 0x09, 0xf7, 0x0e, 0x09, 0x07, 0x0b, 0x04, 0xdf,
  0x17, 0x1b, 0x11, 0xda, 0x09, 0xec, 0xe9, 0xf5, 0x21, 0x05, 0x03, 0xe1,
  0xf3, 0x14, 0x05, 0x19, 0x16, 0xf4, 0x11, 0xfe, 0x05, 0xfd, 0x06, 0xef,
  0x0b, 0x10, 0xf0, 0xe6, 0xfe, 0x07, 0x06, 0xf2, 0xfe, 0xfb, 0xe2, 0x01,
  0x17, 0xf3, 0xf7, 0xfe, 0x0d, 0x1b, 0x1a, 0x00, 0x10, 0x07, 0xfc, 0xf6,
  0x01, 0x1d, 0x04, 0xe8, 0x0b, 0xee, 0xf2, 0xf5, 0x1d, 0x13, 0xf2, 0x1c,
  0xf6, 0xf0, 0xe4, 0x02, 0x27, 0x11, 0xde, 0xdc, 0x00, 0xfb, 0xfa, 0xdf,
  0x02, 0x01, 0xdf, 0xec, 0x11, 0xef, 0x15, 0x07, 0x05, 0xdb, 0x04, 0x20,
  0x11, 0x02, 0x1e, 0xed, 0x14, 0x02, 0x18, 0x25, 0x11, 0x13, 0x29, 0xd2,
  0x14, 0x23, 0x00, 0xff, 0x21, 0x07, 0x15, 0xf0, 0x26, 0xfb, 0x0a, 0x0f,
  0x20, 0x02, 0x1f, 0x03, 0x05, 0x21, 0xee, 0x04, 0xef, 0xee, 0x06, 0xec,
  0x0e, 0xe3, 0xee, 0x2f, 0xeb, 0xcb, 0xe7, 0x02, 0xfd, 0x18, 0x03, 0x0b,
  0xfe, 0x1b, 0xfc, 0x01, 0x05, 0xfa, 0x27, 0x04, 0xef, 0x02, 0x0e, 0x05,
  0x08, 0x02, 0xf8, 0x19, 0xfd, 0x08, 0x0a, 0xff, 0x21, 0x13, 0x04, 0x0e,
  0xf9, 0x12, 0xed, 0x11, 0x11, 0xd8, 0x26, 0xe0, 0x03, 0xf8, 0xe5, 0xef,
  0x0d, 0xf2, 0xff, 0xd5, 0xee, 0x07, 0x23, 0xfa, 0x20, 0x2c, 0xf9, 0xdf,
  0x15, 0xf6, 0xf3, 0xe3, 0x16, 0xf0, 0xf6, 0xe1, 0xfe, 0x0f, 0xf8, 0xf8,
  0xfb, 0xf1, 0x22, 0xda, 0x1a, 0x0b, 0x15, 0xe2, 0x06, 0x16, 0x08, 0xe9,
  0x0a, 0xf1, 0x1b, 0x07, 0x06, 0xf1, 0x04, 0x14, 0x02, 0xe5, 0xeb, 0xdd,
  0xf7, 0x03, 0xee, 0xfc, 0xe2, 0xfd, 0x08, 0x06, 0x0e, 0xe6, 0x1a, 0xee,
  0x03, 0x02, 0xf4, 0xf7, 0x22, 0x02, 0x11, 0xf6, 0xf6, 0xef, 0xee, 0xed,
  0xfa, 0xf8, 0x22, 0x00, 0x15, 0x08, 0x04, 0xf6, 0x11, 0x01, 0x17, 0x16,
  0x0e, 0x03, 0x1c, 0xe6, 0x16, 0xe8, 0xf5, 0x13, 0x2c, 0x00, 0xf2, 0x13,
  0x20, 0x0c, 0xf6, 0xfe, 0x28, 0x16, 0xec, 0xe3, 0x2d, 0xcc, 0x14, 0x12,
  0xfb, 0xe7, 0x2e, 0xfc, 0x16, 0x04, 0xea, 0x1e, 0xf8, 0xf3, 0x04, 0xfa,
  0x09, 0xff, 0x04, 0x1d, 0xff, 0xfc, 0xe1, 0xfc, 0x22, 0x0f, 0x06, 0xf0,
  0x0b, 0xf8, 0xf1, 0x00, 0x11, 0x08, 0xf7, 0x13, 0xf8, 0x18, 0x20, 0xe8,
  0x12, 0x08, 0x1d, 0x0a, 0xfd, 0x10, 0xf3, 0xe5, 0x27, 0x15, 0x14, 0xd8,
  0x14, 0xef, 0xf4, 0x07, 0x0a, 0x07, 0x2b, 0xe2, 0x00, 0x08, 0x0a, 0xdc,
  0x32, 0xe2, 0x22, 0xec, 0xf2, 0xec, 0x11, 0xf9, 0x0d, 0x12, 0x14, 0xd5,
  0x14, 0x07, 0xf3, 0xdb, 0x1a, 0xea, 0x2e, 0xce, 0x06, 0x10, 0xff, 0x0f,
  0x11, 0xd2, 0xfa, 0x02, 0x17, 0xfc, 0xee, 0xde, 0xff, 0x0f, 0x17, 0x01,
  0x00, 0xe4, 0xf3, 0xe5, 0x0f, 0xec, 0xe9, 0xdd, 0x04, 0x06, 0xdc, 0xf2,
  0x0a, 0xfe, 0x0c, 0xef, 0x0a, 0x04, 0x06, 0xf2, 0x02, 0xf2, 0x34, 0x12,
  0x06, 0xd6, 0x05, 0x0c, 0x14, 0x1e, 0x11, 0x0b, 0x18, 0x02, 0x12, 0xf2,
  0x1b, 0x29, 0x0f, 0x1a, 0x14, 0xfa, 0x40, 0xe5, 0x18, 0xfe, 0x2b, 0x08,
  0x2d, 0xe8, 0xeb, 0x16, 0x29, 0x14, 0xf3, 0xea, 0x21, 0xcf, 0xe3, 0x12,
  0x19, 0xfd, 0x1d, 0x1a, 0xf7, 0xeb, 0x05, 0xfc, 0x27, 0x0a, 0xf2, 0x2a,
  0xf9, 0xdb, 0x01, 0xfa, 0xf7, 0x1b, 0x1b, 0x0f, 0x00, 0xed, 0xcf, 0xd9,
  0x20, 0xe1, 0x0f, 0x12, 0xed, 0xdd, 0xd5, 0xfe, 0x11, 0x02, 0x22, 0x18,
  0x00, 0xf4, 0x0f, 0xef, 0x1d, 0xdd, 0xf5, 0x12, 0x1f, 0x0e, 0xec, 0xdc,
  0x1d, 0xfc, 0xfd, 0xd4, 0x38, 0xe2, 0x02, 0xf1, 0x21, 0xfa, 0x07, 0xf9,
  0xf1, 0xfb, 0xf7, 0x0f, 0x2a, 0x06, 0xf6, 0x02, 0xe7, 0x07, 0x01, 0xf2,
  0x2c, 0x13, 0x34, 0xdc, 0x0a, 0xda, 0x23, 0xe1, 0x1d, 0xfe, 0x11, 0xe4,
  0xf9, 0x13, 0x04, 0xe9, 0x1f, 0xf4, 0x05, 0xee, 0x09, 0xfa, 0xf8, 0xfd,
  0xfb, 0x17, 0x01, 0xf8, 0x03, 0x1a, 0x13, 0xf8, 0xf7, 0xdb, 0xe2, 0xfa,
  0x24, 0x1d, 0x02, 0xef, 0xfe, 0xfd, 0x04, 0xe8, 0x0c, 0xf3, 0xda, 0xe3,
  0x10, 0x01, 0x26, 0xe8, 0x13, 0xf0, 0x2c, 0xeb, 0xf2, 0xfd, 0x17, 0x04,
  0x10, 0xf5, 0x1f, 0xeb, 0x19, 0x1c, 0x1b, 0x17, 0x0a, 0xf4, 0x16, 0xeb,
  0x2f, 0xed, 0x09, 0xfc, 0x29, 0xef, 0x04, 0x14, 0x40, 0xdb, 0x1b, 0xfd,
  0x1b, 0xe5, 0x2c, 0x0e, 0x25, 0xf2, 0xfd, 0x18, 0xde, 0xec, 0x1f, 0x0f,
  0x09, 0xfb, 0xf7, 0x41, 0xe9, 0xe3, 0xde, 0xfe, 0xf5, 0xe3, 0x16, 0x0d,
  0xd0, 0xfc, 0xd3, 0xf5, 0x1a, 0x02, 0x08, 0x0b, 0xf9, 0x03, 0xfc, 0xed,
  0x1f, 0x0e, 0x1a, 0x10, 0xfa, 0xfd, 0xe2, 0xe3, 0x05, 0x1a, 0x25, 0xfa,
  0xf2, 0x0a, 0xf6, 0x01, 0x11, 0x1c, 0x0a, 0xde, 0x2a, 0x03, 0xfd, 0xfb,
  0x22, 0xeb, 0x09, 0xe8, 0x10, 0xf7, 0xfd, 0x19, 0x18, 0xf2, 0x2a, 0xf5,
  0xfd, 0x29, 0xef, 0xf8, 0x21, 0xeb, 0x24, 0xdd, 0xf5, 0xed, 0xe7, 0xf4,
  0x12, 0xff, 0x1f, 0xe5, 0xf2, 0x0e, 0x00, 0x13, 0x0a, 0x06, 0x05, 0x06,
  0x14, 0xfc, 0xf8, 0xf6, 0xf6, 0x18, 0x05, 0x09, 0x1c, 0xef, 0xeb, 0xff,
  0x00, 0xe0, 0xff, 0x00, 0x06, 0x04, 0x13, 0x07, 0x11, 0xdc, 0x14, 0xea,
  0xf1, 0xfb, 0xf1, 0xeb, 0xef, 0xea, 0x3c, 0x09, 0xfa, 0xe8, 0x04, 0xe0,
  0x02, 0xfc, 0x28, 0x18, 0x23, 0xf9, 0x15, 0xe8, 0x16, 0xf8, 0x01, 0x1f,
  0x0f, 0x04, 0x26, 0xd5, 0x2f, 0xda, 0x13, 0x10, 0x35, 0x06, 0xce, 0xf2,
  0x38, 0x0b, 0x10, 0xf8, 0x0d, 0xd2, 0xff, 0x0f, 0x45, 0xed, 0x0c, 0x15,
  0xed, 0xd7, 0x22, 0xff, 0x2e, 0xed, 0xf1, 0x25, 0xea, 0xe0, 0xeb, 0xf1,
  0x17, 0x07, 0x2b, 0x2c, 0xdf, 0xd3, 0xd0, 0xf7, 0x16, 0x0e, 0x0d, 0x21,
  0xed, 0xe3, 0xf6, 0x06, 0x13, 0xf2, 0x0c, 0x25, 0x09, 0xff, 0xfc, 0xfc,
  0x2a, 0x08, 0xfd, 0x0c, 0xf2, 0xf6, 0xe6, 0xeb, 0x0c, 0x04, 0xfa, 0xed,
  0x22, 0x06, 0xfd, 0xf7, 0xfe, 0xe1, 0x21, 0xe4, 0x05, 0xf2, 0x0d, 0x04,
  0x1f, 0xf5, 0x17, 0x07, 0xf2, 0x17, 0xe0, 0xf9, 0x29, 0x00, 0x12, 0xee,
  0xeb, 0x0e, 0x0e, 0xf1, 0x20, 0xeb, 0x23, 0xeb, 0xfe, 0xeb, 0x0b, 0xf6,
  0x19, 0xf5, 0x04, 0xe3, 0x00, 0xf6, 0xfc, 0xf8, 0xfb, 0xee, 0xfa, 0xed,
  0x02, 0xda, 0x10, 0xfb, 0xf8, 0x0e, 0xe8, 0xe6, 0x06, 0xff, 0xf1, 0xff,
  0xf1, 0x21, 0xe7, 0xe4, 0xf1, 0xf6, 0x20, 0x01, 0x11, 0xff, 0x0c, 0xff,
  0xfe, 0xee, 0x0f, 0xda, 0x20, 0x04, 0x0e, 0x18, 0x04, 0xe4, 0xfc, 0xda,
  0x25, 0xf8, 0xde, 0x25, 0xf8, 0x1d, 0x1c, 0xda, 0x0b, 0xff, 0x18, 0x15,
  0x0a, 0xf3, 0xd0, 0x0b, 0x3b, 0xee, 0x02, 0x12, 0x15, 0xf2, 0x04, 0x23,
  0x1e, 0x0f, 0x20, 0x28, 0xbf, 0xd8, 0x0a, 0xf4, 0x1a, 0x1c, 0x09, 0x3c,
  0xf4, 0xd3, 0xed, 0x09, 0x10, 0xd6, 0x3e, 0x22, 0xf7, 0xe8, 0xe3, 0x03,
  0xff, 0x0b, 0x03, 0x1f, 0x19, 0xd9, 0xf1, 0x11, 0x0b, 0x0e, 0xf1, 0xfd,
  0xf0, 0x0c, 0xfc, 0x0a, 0x10, 0xe9, 0x26, 0xf8, 0x12, 0x10, 0xf0, 0x08,
  0x1e, 0xe8, 0x25, 0xf3, 0x19, 0xdf, 0xea, 0x06, 0x05, 0xfa, 0x33, 0xed,
  0x0f, 0x02, 0xfd, 0x06, 0x19, 0xf3, 0x34, 0x0c, 0xe3, 0x14, 0xe6, 0x17,
  0x1a, 0xf8, 0x1e, 0xfe, 0x09, 0x0b, 0xf3, 0x07, 0x1c, 0xe8, 0x10, 0xd9,
  0xfb, 0xee, 0xe3, 0xf5, 0x0d, 0xec, 0x19, 0xe6, 0xff, 0x15, 0x0a, 0xe6,
  0x08, 0xff, 0x09, 0x07, 0x17, 0x02, 0x10, 0x01, 0x02, 0x07, 0xf0, 0x06,
  0x0d, 0x2f, 0x01, 0x10, 0x14, 0x1c, 0x08, 0x04, 0x0d, 0xf7, 0xd1, 0x09,
  0x1d, 0xf6, 0x41, 0x0c, 0xf0, 0xfc, 0x0c, 0xef, 0x1d, 0xf4, 0x28, 0x14,
  0x15, 0x15, 0x04, 0xeb, 0x39, 0x00, 0x0c, 0x2d, 0x07, 0x00, 0xf1, 0xf0,
  0x3b, 0xd2, 0xf7, 0x0e, 0x18, 0xf0, 0xd3, 0x11, 0x35, 0x13, 0x12, 0xfc,
  0x0f, 0xde, 0x07, 0x00, 0x2e, 0xe7, 0x15, 0x18, 0xc1, 0xe3, 0x20, 0x02,
  0x0d, 0xf4, 0x05, 0x24, 0xe1, 0xd7, 0xe2, 0x03, 0xee, 0xdf, 0x14, 0x15,
  0x10, 0xe0, 0xc7, 0xfd, 0x10, 0x0e, 0x15, 0x1c, 0x17, 0xe8, 0xd4, 0x12,
  0x1b, 0xe2, 0xfe, 0x22, 0xf1, 0xfd, 0xeb, 0xf6, 0x27, 0x04, 0x03, 0x09,
  0x1a, 0xeb, 0xec, 0xed, 0x25, 0xfc, 0x18, 0xda, 0x16, 0xf4, 0xf7, 0x05,
  0xf6, 0x0f, 0x0c, 0xee, 0xf1, 0x10, 0x09, 0x08, 0x1a, 0xf7, 0x25, 0x00,
  0xdd, 0xfd, 0xfe, 0x0a, 0x1b, 0xd3, 0x42, 0xfc, 0x06, 0xff, 0xd2, 0xf0,
  0x24, 0x0c, 0x22, 0xeb, 0x0e, 0xf0, 0x00, 0xfc, 0x20, 0x0c, 0x1b, 0xef,
  0x01, 0xd5, 0xf0, 0xfc, 0x04, 0xf6, 0xfa, 0x14, 0x15, 0x26, 0xf8, 0x02,
  0xfb, 0x01, 0x11, 0xf2, 0x18, 0xfb, 0x0d, 0x06, 0x02, 0xee, 0xf6, 0xde,
  0xfa, 0xed, 0xed, 0xfa, 0xff, 0xfe, 0x18, 0x15, 0x09, 0xfe, 0x09, 0xee,
  0x2c, 0xee, 0x23, 0x2a, 0xf8, 0x12, 0x05, 0xf0, 0x4c, 0x08, 0x07, 0x3f,
  0x00, 0xef, 0x0c, 0x02, 0x3c, 0xfd, 0x12, 0x13, 0x1b, 0x11, 0xf2, 0x0c,
  0x3b, 0xeb, 0x1b, 0x16, 0x08, 0xf0, 0x03, 0x18, 0x3e, 0xed, 0x00, 0x28,
  0xe5, 0xf3, 0x15, 0x04, 0x21, 0xcb, 0x04, 0x3b, 0xe6, 0xdd, 0xe1, 0xff,
  0x13, 0xc9, 0x17, 0x2c, 0xf3, 0x0c, 0xc3, 0x09, 0x13, 0xfd, 0x00, 0xfa,
  0xf9, 0xf6, 0x05, 0x04, 0x24, 0xdb, 0x0a, 0x1b, 0xe2, 0xe4, 0xe3, 0x02,
  0x3d, 0xf5, 0x1c, 0x03, 0x27, 0x01, 0xda, 0x05, 0x16, 0xef, 0x09, 0xf8,
  0x2a, 0x10, 0xef, 0x1f, 0x1b, 0xf0, 0x0f, 0xf5, 0x02, 0x1b, 0x1a, 0x01,
  0x1b, 0xd8, 0x3b, 0x0c, 0xf4, 0x1e, 0xd5, 0x0a, 0x23, 0x05, 0x22, 0xf9,
  0x02, 0x08, 0xe1, 0xfa, 0x10, 0x0f, 0x35, 0xdc, 0xfe, 0xf4, 0xfc, 0xe8,
  0x19, 0xf4, 0x03, 0xd6, 0xff, 0xf6, 0xec, 0x0a, 0x06, 0xf0, 0xdc, 0x08,
  0x13, 0x17, 0xf9, 0xfb, 0x03, 0x01, 0x00, 0xfe, 0x0d, 0x17, 0x0a, 0xfd,
  0x21, 0xdb, 0x08, 0xe3, 0x05, 0xe6, 0xdc, 0xe3, 0x13, 0x05, 0x08, 0xfe,
  0x11, 0x16, 0x31, 0xe6, 0x17, 0x20, 0x24, 0x0b, 0xfa, 0x17, 0x01, 0xd6,
  0x4a, 0xfb, 0x06, 0x16, 0xf2, 0xf5, 0x12, 0xea, 0x38, 0xcd, 0x19, 0x0c,
  0x19, 0xfd, 0xe1, 0x0b, 0x2b, 0xe3, 0x22, 0x03, 0x07, 0x07, 0xf2, 0x1d,
  0x2b, 0xf7, 0x13, 0x03, 0xdf, 0xea, 0x0c, 0x09, 0x1d, 0xfa, 0x00, 0x43,
  0xf0, 0x0d, 0xe4, 0x15, 0x15, 0xc4, 0x12, 0x0e, 0x05, 0xf9, 0xda, 0x09,
  0x21, 0x16, 0x02, 0x15, 0xff, 0x08, 0xe7, 0xf1, 0x14, 0xf9, 0xf1, 0x0a,
  0xff, 0xee, 0xcf, 0xf0, 0x23, 0x16, 0xff, 0x12, 0x1d, 0x02, 0xda, 0xfc,
  0xfc, 0xcd, 0x18, 0xfb, 0x0c, 0xe9, 0xf3, 0x01, 0xe6, 0x18, 0x1f, 0xfd,
  0xe9, 0x10, 0xf6, 0xfa, 0x26, 0xf7, 0x32, 0x06, 0xe4, 0x2c, 0xe2, 0xf9,
  0xfd, 0xda, 0x33, 0xeb, 0xf8, 0xef, 0xd2, 0x03, 0x18, 0xee, 0x16, 0xd3,
  0xf2, 0xfc, 0xfd, 0x0c, 0x18, 0xe4, 0x0a, 0xf1, 0x07, 0xd0, 0xfb, 0xec,
  0x01, 0xf1, 0xf0, 0x03, 0x17, 0xe9, 0xf8, 0x01, 0x03, 0x04, 0xfb, 0x1b,
  0x02, 0xe9, 0xec, 0xff, 0x00, 0xce, 0x0f, 0xf7, 0xf9, 0xd3, 0xee, 0xe7,
  0xff, 0xfd, 0x0e, 0xf8, 0xfc, 0x14, 0x1e, 0xe4, 0x11, 0xf5, 0x16, 0x11,
  0xe2, 0x2d, 0xe5, 0xd1, 0x35, 0xfe, 0x0e, 0x17, 0xeb, 0x1b, 0x0a, 0xdf,
  0x1d, 0xf7, 0x20, 0x11, 0x19, 0xf1, 0xda, 0xfe, 0x1e, 0xe0, 0x01, 0x06,
  0x16, 0x0c, 0x0d, 0x0a, 0x36, 0xfc, 0x17, 0x27, 0xcc, 0xd8, 0x0f, 0x10,
  0x2e, 0xe8, 0x04, 0x34, 0xe5, 0x04, 0xe0, 0xfd, 0x1e, 0x15, 0x28, 0x1d,
  0x0a, 0xe9, 0xd1, 0xfb, 0x1b, 0xeb, 0xfb, 0x0e, 0xec, 0x09, 0xf5, 0xfd,
  0x22, 0x03, 0xed, 0x19, 0xec, 0x07, 0xe4, 0x00, 0x34, 0xf7, 0xef, 0x0d,
  0xfe, 0xed, 0xd9, 0xfc, 0xfa, 0xd4, 0xf6, 0xfb, 0x10, 0xff, 0xfd, 0xff,
  0xf8, 0xf6, 0x0d, 0xfb, 0xfd, 0x10, 0x16, 0xf7, 0x21, 0xf7, 0x03, 0x04,
  0xdc, 0xe5, 0xf2, 0x0d, 0x16, 0xe7, 0x26, 0xde, 0x13, 0x04, 0xec, 0xea,
  0x29, 0x0a, 0x1c, 0xff, 0x00, 0x00, 0x02, 0xf7, 0x28, 0x11, 0x08, 0xe8,
  0xf5, 0xfb, 0xee, 0x0b, 0xf3, 0xf1, 0xf8, 0xe2, 0x33, 0xe5, 0xec, 0xff,
  0x02, 0xf9, 0x04, 0x06, 0x0c, 0x04, 0x05, 0x03, 0x01, 0x23, 0xf8, 0xf0,
  0xfd, 0xde, 0x1b, 0xcc, 0x07, 0xdb, 0xfd, 0x08, 0xfe, 0xfc, 0x12, 0xd9,
  0x0b, 0x11, 0x0d, 0x0e, 0xfb, 0xff, 0xf3, 0xda, 0x3d, 0x10, 0xfe, 0x29,
  0x0a, 0x02, 0x06, 0xfb, 0x3f, 0xed, 0x15, 0x1d, 0x13, 0xfa, 0xfc, 0xfb,
  0x23, 0xe3, 0x21, 0xfb, 0xf2, 0x0c, 0xfc, 0xf9, 0x41, 0xe8, 0x06, 0x25,
  0xe2, 0xfb, 0x0c, 0x12, 0x12, 0xe6, 0x0e, 0x32, 0xe9, 0xe3, 0xd0, 0x02,
  0x18, 0xd1, 0x1d, 0x1b, 0x01, 0x02, 0xd9, 0x05, 0x00, 0xf7, 0xf4, 0x01,
  0x03, 0x17, 0xe6, 0xfa, 0x23, 0xc9, 0x03, 0x2c, 0x15, 0x14, 0xda, 0xf3,
  0x26, 0x06, 0xf2, 0x16, 0x0e, 0xe7, 0xbe, 0x06, 0x1e, 0xf6, 0x07, 0xe8,
  0x10, 0x0a, 0x00, 0xf6, 0x0c, 0xe2, 0x1c, 0x04, 0xef, 0x14, 0x04, 0x04,
  0x1b, 0xf0, 0x37, 0x00, 0xdc, 0x0b, 0xf5, 0xf2, 0x27, 0x02, 0x26, 0x08,
  0xf3, 0xfd, 0xd7, 0x03, 0x16, 0xef, 0x1b, 0xd5, 0xf8, 0xfb, 0x01, 0xf4,
  0x15, 0xee, 0x02, 0x01, 0x05, 0xef, 0xe7, 0xf4, 0x08, 0xfd, 0xf7, 0xfb,
  0x28, 0x11, 0xf3, 0x09, 0xff, 0xe3, 0xed, 0xeb, 0x15, 0x06, 0xf2, 0x07,
  0x22, 0x01, 0xfb, 0xe3, 0xe2, 0xe1, 0xfa, 0xc4, 0xe8, 0xe0, 0x06, 0xef,
  0xf1, 0xe7, 0x38, 0xc9, 0x0d, 0x04, 0x1a, 0x14, 0x09, 0x1f, 0xf5, 0xbd,
  0x43, 0x25, 0x1a, 0x31, 0xe1, 0x17, 0x08, 0xe6, 0x2e, 0xef, 0x01, 0x0c,
  0x12, 0xf3, 0x03, 0xef, 0x1d, 0xe6, 0x12, 0x16, 0xfa, 0x0a, 0x08, 0xf6,
  0x32, 0xdc, 0xf5, 0x07, 0xf3, 0x1e, 0xf9, 0x19, 0x0b, 0xf6, 0xfc, 0x38,
  0xff, 0xe1, 0xfa, 0x1d, 0xfc, 0xca, 0x10, 0x24, 0x03, 0xfa, 0xc6, 0x06,
  0x06, 0xbc, 0x01, 0x0d, 0xf6, 0x02, 0x09, 0xef, 0x1e, 0xd4, 0x02, 0x04,
  0xf3, 0x1c, 0xed, 0xf1, 0x3b, 0xe7, 0xe8, 0x02, 0x03, 0x04, 0xe2, 0xf2,
  0x17, 0xf7, 0xf2, 0xea, 0x0d, 0x1d, 0xf6, 0x01, 0x11, 0x04, 0x00, 0xea,
  0x15, 0x11, 0xd0, 0x07, 0xff, 0xf0, 0x30, 0xf2, 0xf4, 0x0c, 0xf2, 0x08,
  0x1a, 0xed, 0x22, 0x0c, 0x08, 0xef, 0xf2, 0x0a, 0x1b, 0x0f, 0x26, 0xee,
  0x01, 0xf3, 0xee, 0xff, 0x2f, 0x0c, 0x18, 0xee, 0xec, 0xf4, 0xeb, 0xfd,
  0x0a, 0xe0, 0xfb, 0xed, 0x11, 0x05, 0xe8, 0xf6, 0x18, 0x07, 0x01, 0x03,
  0x0c, 0xf1, 0xef, 0x01, 0x18, 0xd7, 0x03, 0xfa, 0xfa, 0x03, 0xdc, 0xd6,
  0x10, 0xfc, 0x02, 0x10, 0xf0, 0x03, 0x34, 0xda, 0x16, 0xef, 0x01, 0xf9,
  0x00, 0x30, 0x0c, 0xcd, 0x34, 0xf1, 0x27, 0x37, 0xf3, 0x23, 0x21, 0xef,
  0x41, 0xd6, 0x10, 0x13, 0x19, 0xf8, 0xec, 0xf2, 0x3f, 0xdb, 0x11, 0x0f,
  0x11, 0x02, 0xea, 0x01, 0x44, 0xe4, 0x09, 0x12, 0x09, 0x08, 0x1b, 0x18,
  0x19, 0x0a, 0x06, 0x33, 0xec, 0x01, 0xde, 0x27, 0x0f, 0xdf, 0x2e, 0x1e,
  0xfa, 0x03, 0xe2, 0x01, 0x02, 0x0e, 0xff, 0xfd, 0x04, 0x02, 0xe8, 0xfc,
  0x2f, 0xf2, 0xf8, 0x13, 0x03, 0x04, 0xe4, 0xee, 0x31, 0x09, 0x0b, 0xff,
  0x0e, 0xfa, 0xdd, 0xeb, 0x1a, 0xdc, 0x09, 0xfa, 0x0b, 0x00, 0xf1, 0x07,
  0x23, 0xe8, 0xfe, 0x10, 0x09, 0x08, 0x24, 0xfa, 0x11, 0x0c, 0x1c, 0x03,
  0xea, 0x0d, 0xe4, 0x12, 0x19, 0x07, 0x00, 0xf9, 0x03, 0xde, 0xed, 0x14,
  0x22, 0xdf, 0x06, 0x0a, 0x03, 0xeb, 0xfc, 0x03, 0x1f, 0xf5, 0x14, 0xcf,
  0xfe, 0xd1, 0xe3, 0x03, 0x0b, 0xd5, 0xe7, 0xed, 0x0d, 0xe2, 0xda, 0x06,
  0x0d, 0x06, 0x0b, 0x13, 0x09, 0xfe, 0x00, 0x06, 0x12, 0x1c, 0x03, 0xf6,
  0x24, 0xda, 0x0e, 0xd1, 0xe9, 0x08, 0x07, 0xe0, 0xe7, 0xf9, 0x1a, 0xcd,
  0x09, 0x0a, 0x20, 0x0d, 0x04, 0x38, 0xfd, 0xbb, 0x2b, 0x08, 0x22, 0x24,
  0xe6, 0x0d, 0x03, 0xea, 0x42, 0xfe, 0x1a, 0x0a, 0x06, 0x0a, 0xfa, 0xe1,
  0x2b, 0xf7, 0x19, 0x07, 0x08, 0x20, 0xdf, 0x18, 0x2c, 0x24, 0x0c, 0x1f,
  0x01, 0x0a, 0xfd, 0x11, 0x13, 0x05, 0x04, 0x2a, 0xf6, 0xee, 0xe5, 0x22,
  0x10, 0xda, 0x16, 0x19, 0xf1, 0xea, 0xcd, 0xfe, 0x17, 0xf8, 0x0d, 0x17,
  0xef, 0x15, 0xea, 0xfb, 0x2a, 0xcd, 0x06, 0x0c, 0xdc, 0xf5, 0x0d, 0xdd,
  0x24, 0x08, 0xf4, 0xe3, 0x16, 0xed, 0xd2, 0xf5, 0x29, 0xf2, 0x06, 0xf0,
  0x13, 0x33, 0xe7, 0x15, 0x15, 0xdb, 0x18, 0xfe, 0xfb, 0x18, 0x01, 0x1a,
  0x0c, 0xfb, 0x12, 0x08, 0xea, 0xeb, 0x07, 0x01, 0x12, 0x08, 0x1c, 0xe1,
  0xf8, 0x01, 0x05, 0x0a, 0x20, 0xca, 0x02, 0xfd, 0x0a, 0xfa, 0x00, 0xf8,
  0x0c, 0xfa, 0x14, 0xf8, 0xf7, 0xe8, 0xf9, 0xf3, 0xfd, 0xf6, 0x0b, 0xf3,
  0x08, 0x00, 0xdb, 0x0c, 0x02, 0xed, 0x06, 0x05, 0x0a, 0x05, 0x04, 0x0c,
  0x10, 0x02, 0xee, 0xde, 0x16, 0xeb, 0xe8, 0xc6, 0xcb, 0xf8, 0xf9, 0x0d,
  0xe8, 0xf8, 0x37, 0xc5, 0x2a, 0xe0, 0xf5, 0x00, 0xe0, 0x06, 0x03, 0xb2,
  0x32, 0x16, 0x1f, 0x14, 0xef, 0x28, 0x05, 0xdd, 0x4d, 0x1c, 0x05, 0x16,
  0x00, 0x09, 0xea, 0xef, 0x14, 0xe8, 0x26, 0x16, 0x0b, 0x29, 0x1d, 0x16,
  0x31, 0x1b, 0x13, 0x20, 0x13, 0x18, 0x0e, 0x13, 0x14, 0x1c, 0xf7, 0x32,
  0xf7, 0x12, 0xee, 0x22, 0x15, 0x18, 0x24, 0x39, 0xfd, 0xfa, 0xda, 0xff,
  0x1a, 0x0e, 0x21, 0x29, 0x0a, 0xfa, 0x05, 0x00, 0x3b, 0xd5, 0x0d, 0x0f,
  0xee, 0x11, 0xf9, 0xeb, 0x27, 0xf7, 0x05, 0xf4, 0x0a, 0x14, 0xe1, 0xfc,
  0x05, 0xdb, 0x01, 0x05, 0x1d, 0x19, 0xf3, 0x04, 0x06, 0xd6, 0x09, 0xfd,
  0x00, 0xfd, 0xfb, 0x03, 0x1d, 0xdb, 0x0a, 0x0d, 0xe9, 0xf4, 0xf3, 0x1a,
  0x04, 0xd1, 0x14, 0xf9, 0xd8, 0x0b, 0xfa, 0x0b, 0x1c, 0xe6, 0x05, 0x06,
  0xdf, 0x0d, 0xe9, 0xec, 0x1a, 0xdd, 0xf0, 0xda, 0xf1, 0xe6, 0xf5, 0x07,
  0x06, 0xf6, 0xf7, 0xd4, 0x08, 0xde, 0xf2, 0xf5, 0x14, 0x07, 0xfa, 0x05,
  0x20, 0xf8, 0x16, 0xe6, 0xdd, 0x18, 0x26, 0xe6, 0x2c, 0xe9, 0xf0, 0xdb,
  0x13, 0xf8, 0x09, 0xe5, 0xde, 0xe6, 0x24, 0xd3, 0x0a, 0xde, 0xff, 0xee,
  0xfa, 0x19, 0x1f, 0xbc, 0x43, 0x04, 0x29, 0x0e, 0xee, 0x2e, 0x1c, 0xe0,
  0x23, 0x21, 0x21, 0x16, 0xf8, 0x1a, 0x01, 0xf4, 0x34, 0xe6, 0xfa, 0x13,
  0x11, 0x19, 0x06, 0x0e, 0x3d, 0xf6, 0x18, 0x11, 0xee, 0xfc, 0xff, 0x19,
  0xf4, 0x22, 0x11, 0x06, 0x06, 0xfe, 0xf3, 0x14, 0x14, 0x12, 0x00, 0x1d,
  0xfc, 0x1d, 0xce, 0xf1, 0x12, 0xfc, 0x23, 0x1b, 0x06, 0xfc, 0xfa, 0xe7,
  0x24, 0xc6, 0xf3, 0x08, 0xe4, 0xfd, 0xec, 0xfd, 0x0c, 0xfe, 0x10, 0x06,
  0xff, 0x14, 0xed, 0xec, 0x0b, 0xff, 0x08, 0xde, 0x02, 0xff, 0xfe, 0x11,
  0xeb, 0xef, 0x06, 0x00, 0x0f, 0x1d, 0x0c, 0xe9, 0x2d, 0xcb, 0x05, 0x0a,
  0xff, 0xfc, 0x0a, 0x12, 0xfa, 0x16, 0x0f, 0x16, 0xdc, 0xee, 0xf5, 0xfb,
  0x0d, 0x16, 0xff, 0xec, 0xf1, 0x0b, 0xe9, 0xfb, 0x17, 0xf0, 0xf9, 0xf0,
  0x08, 0xe3, 0xfc, 0x13, 0x0b, 0x0b, 0xed, 0x06, 0x0e, 0xec, 0xf0, 0x08,
  0x18, 0x02, 0x04, 0xef, 0x1d, 0xde, 0x1d, 0x04, 0xdc, 0xed, 0x09, 0xd5,
  0xff, 0xee, 0xe8, 0xcc, 0xf6, 0xeb, 0x09, 0xe1, 0xfe, 0x17, 0x1d, 0xc5,
  0x0e, 0x05, 0x06, 0xfa, 0xfb, 0x1a, 0x10, 0xa8, 0x29, 0xe6, 0x3e, 0x28,
  0xe6, 0x47, 0x02, 0xd2, 0x43, 0xe2, 0x0a, 0x18, 0x0f, 0x0a, 0xea, 0x05,
  0x28, 0xf5, 0xfa, 0x18, 0x14, 0x29, 0xf9, 0x1e, 0x41, 0xfe, 0x22, 0x24,
  0xe4, 0x13, 0xf3, 0x2c, 0x16, 0x02, 0x0a, 0x31, 0x00, 0xfb, 0xf8, 0x08,
  0x06, 0x26, 0x05, 0x1a, 0xf7, 0x14, 0xde, 0xfb, 0x26, 0x02, 0x0e, 0x02,
  0x01, 0x26, 0x04, 0xf7, 0x46, 0xfb, 0x03, 0x18, 0xe1, 0x2b, 0x01, 0xf6,
  0x15, 0x0a, 0xf1, 0x14, 0x0f, 0xfd, 0xba, 0xee, 0x19, 0x02, 0x33, 0xf9,
  0x1d, 0x0f, 0x1b, 0xfc, 0x05, 0x0c, 0xf6, 0x05, 0xf0, 0x2d, 0x00, 0xe8,
  0x1a, 0x0c, 0x27, 0x05, 0xe5, 0x14, 0x08, 0x12, 0x0a, 0xd7, 0x04, 0xec,
  0xf4, 0xff, 0x11, 0xf0, 0xf8, 0x0b, 0x09, 0xfa, 0xf5, 0xf0, 0xf9, 0xe3,
  0xfd, 0xe8, 0x06, 0xe7, 0xfb, 0xda, 0x22, 0x07, 0x13, 0xec, 0xf3, 0x05,
  0x0f, 0xf6, 0x0c, 0xfa, 0x10, 0x07, 0xf3, 0xef, 0x14, 0x1f, 0x02, 0x0d,
  0x29, 0x01, 0x1c, 0xe0, 0x01, 0xe2, 0xdf, 0xdb, 0x0c, 0x0c, 0x14, 0xf6,
  0xef, 0x09, 0x0e, 0xd4, 0x17, 0xd3, 0x1a, 0x25, 0xe8, 0x2b, 0xfc, 0xb8,
  0x46, 0x0c, 0x1e, 0x13, 0xef, 0x20, 0x0b, 0xd8, 0x33, 0xf0, 0x28, 0xfd,
  0x0e, 0x16, 0xf7, 0x14, 0x2b, 0xe4, 0x10, 0x0c, 0x04, 0x1f, 0xf7, 0xfb,
  0x40, 0x04, 0x24, 0xfd, 0xf6, 0xfb, 0xf6, 0x22, 0x22, 0x08, 0x1c, 0x0e,
  0xfd, 0xee, 0xe8, 0xfc, 0xfb, 0xff, 0x06, 0xff, 0xf6, 0x11, 0xdd, 0x0b,
  0x0f, 0x01, 0x10, 0x16, 0xe5, 0x02, 0xf5, 0xf2, 0x0a, 0x0d, 0x03, 0x0a,
  0xde, 0x28, 0xf7, 0xea, 0x24, 0x04, 0x24, 0x01, 0x0d, 0x13, 0xde, 0x01,
  0x05, 0xfa, 0x26, 0xe8, 0xf8, 0x14, 0xff, 0x06, 0xf5, 0x12, 0x06, 0x01,
  0x04, 0x0d, 0x1c, 0xff, 0x12, 0xe9, 0x0e, 0xea, 0xfd, 0x1a, 0x13, 0x04,
  0x1c, 0xff, 0x2b, 0xfa, 0x05, 0xf4, 0x01, 0xff, 0x0e, 0x01, 0x11, 0xf0,
  0xfe, 0x04, 0xed, 0xec, 0x05, 0xec, 0xf8, 0xff, 0x00, 0xf4, 0xf8, 0x01,
  0xed, 0xe7, 0x00, 0x00, 0xff, 0x03, 0x18, 0xff, 0x0f, 0xf3, 0xfb, 0x05,
  0x10, 0x01, 0xe3, 0x08, 0xf2, 0x1b, 0xf3, 0xd0, 0xf6, 0xf5, 0x05, 0xd6,
  0xf1, 0xff, 0xf6, 0x00, 0xe8, 0xf5, 0xf0, 0xc2, 0x14, 0x16, 0x0d, 0xfe,
  0x05, 0x24, 0xe4, 0xa3, 0x40, 0x14, 0x1e, 0x0f, 0xf2, 0x30, 0xed, 0xc8,
  0x21, 0xf5, 0xf8, 0x0e, 0x0e, 0x20, 0x08, 0xe6, 0x27, 0xfd, 0x03, 0x0c,
  0x0b, 0x22, 0x18, 0x17, 0x2f, 0xf9, 0xfd, 0x14, 0xe6, 0x0a, 0x10, 0x1e,
  0xfe, 0x1c, 0x03, 0x11, 0xfa, 0x16, 0xed, 0x0d, 0xfa, 0xf4, 0x02, 0x05,
  0xed, 0xfe, 0xe9, 0x16, 0x1b, 0xe9, 0x11, 0x0a, 0x1a, 0x36, 0xe8, 0xf0,
  0x2f, 0xfc, 0x1e, 0x05, 0x0e, 0x2d, 0x01, 0xf9, 0x0a, 0xf6, 0x00, 0xe6,
  0xf8, 0x0e, 0xe7, 0x02, 0xf8, 0xe4, 0x00, 0xfd, 0x0b, 0x2a, 0x0e, 0xfa,
  0xfa, 0xe4, 0x05, 0xf7, 0x1b, 0xfe, 0xff, 0x0f, 0xfd, 0xdd, 0x1e, 0x11,
  0xee, 0x21, 0x22, 0xfc, 0x0f, 0x09, 0xfb, 0xeb, 0x0d, 0x12, 0xfd, 0xfb,
  0x29, 0xfc, 0xfd, 0xf3, 0xf0, 0xf1, 0x05, 0xf2, 0x05, 0xf9, 0x0d, 0xe4,
  0xf8, 0x00, 0xee, 0x03, 0x0d, 0xe7, 0xf5, 0xde, 0x08, 0xfd, 0xf8, 0x0f,
  0xf8, 0xfa, 0xfc, 0xff, 0x19, 0x26, 0x18, 0xfa, 0x09, 0xd3, 0x04, 0xeb,
  0xf3, 0xde, 0xe2, 0xe1, 0xd6, 0xed, 0xea, 0x0a, 0x0f, 0x0f, 0x18, 0xc0,
  0xfa, 0xe8, 0xf2, 0x0b, 0xff, 0x26, 0xe5, 0xba, 0x39, 0xea, 0x13, 0xf3,
  0xfa, 0x50, 0xe2, 0xcb, 0x19, 0x04, 0x12, 0xe9, 0x04, 0x19, 0xf4, 0x02,
  0x2e, 0xef, 0x08, 0x0b, 0x01, 0x22, 0xeb, 0xfa, 0x15, 0x2b, 0x21, 0x03,
  0xea, 0xec, 0xf1, 0x1a, 0x01, 0xf6, 0x09, 0xef, 0xf0, 0x15, 0xee, 0x1d,
  0xf7, 0xe5, 0x09, 0xf5, 0xf9, 0x24, 0xed, 0x26, 0x25, 0xf8, 0x0b, 0xf9,
  0x0d, 0x39, 0xef, 0x04, 0xff, 0xff, 0xee, 0xeb, 0x10, 0x18, 0x08, 0xf6,
  0x06, 0x0b, 0x17, 0xf1, 0x20, 0x14, 0xdf, 0x00, 0x1c, 0x0a, 0xff, 0xea,
  0x08, 0xee, 0x02, 0xfd, 0x02, 0xf6, 0xef, 0x0a, 0x0b, 0x05, 0xf7, 0xfd,
  0x22, 0xf5, 0x0a, 0x07, 0xdf, 0x10, 0x06, 0x0f, 0x0d, 0xf4, 0x1f, 0xe3,
  0xea, 0x0b, 0xf1, 0x01, 0x2b, 0xff, 0x13, 0xe5, 0x0f, 0xfc, 0xef, 0x09,
  0x09, 0x04, 0xfa, 0xf2, 0x15, 0xe1, 0xf5, 0x06, 0x00, 0x0b, 0xfa, 0xff,
  0x17, 0x0a, 0xfa, 0x04, 0xf7, 0x0d, 0xf5, 0x11, 0x03, 0x16, 0x06, 0xfd,
  0xe1, 0x0a, 0xff, 0xe1, 0xe9, 0xdc, 0xfb, 0xe3, 0xfe, 0x06, 0xd8, 0xfa,
  0xf7, 0xd6, 0xff, 0xad, 0xf9, 0x0a, 0xd8, 0xe9, 0x08, 0x17, 0xf9, 0xbb,
  0xff, 0x14, 0xe1, 0xe7, 0x01, 0x20, 0xcc, 0xe0, 0x11, 0x23, 0xe6, 0xfb,
  0x02, 0x1c, 0xec, 0xd5, 0x24, 0x15, 0x26, 0xf2, 0x19, 0x28, 0xec, 0x03,
  0x22, 0x01, 0x11, 0x0d, 0xf3, 0x0d, 0xed, 0x1d, 0xec, 0x19, 0x1a, 0x17,
  0x0b, 0x10, 0x0c, 0x01, 0x1b, 0x04, 0x0d, 0x0b, 0x09, 0x08, 0xeb, 0x05,
  0xf9, 0x03, 0x20, 0xf0, 0x1f, 0x0a, 0xee, 0x1a, 0x14, 0xea, 0x0a, 0xf9,
  0x04, 0x2d, 0xec, 0xe8, 0x11, 0xe5, 0xf9, 0x04, 0x18, 0x2b, 0xf2, 0xdb,
  0xe8, 0xd8, 0x17, 0xf7, 0x1f, 0xea, 0x04, 0x06, 0x17, 0xf5, 0xf0, 0xf9,
  0x05, 0xfe, 0x06, 0xfb, 0x09, 0x24, 0xe4, 0xf2, 0xfe, 0x0f, 0xef, 0xf3,
  0x0a, 0xff, 0x1b, 0xe6, 0x0a, 0xfd, 0x0b, 0xfc, 0xfb, 0x06, 0xfd, 0xfa,
  0x16, 0xf4, 0x0d, 0xfc, 0x2a, 0xd5, 0x08, 0xed, 0x15, 0xd8, 0x02, 0xfe,
  0x06, 0x02, 0xfb, 0x05, 0x08, 0x13, 0x11, 0xeb, 0xfc, 0xf5, 0xff, 0xf5,
  0xf2, 0x10, 0xf5, 0x0e, 0x12, 0x10, 0x15, 0x06, 0xfc, 0x03, 0x06, 0xd2,
  0xf6, 0x22, 0x06, 0x29, 0x05, 0x0b, 0xf4, 0xf0, 0xdc, 0x13, 0xfb, 0x11,
  0xf6, 0x26, 0xed, 0x26, 0x24, 0x0a, 0xd6, 0x1d, 0x0a, 0x1b, 0xf7, 0x1c,
  0x39, 0xeb, 0xe0, 0x04, 0x10, 0x01, 0x16, 0x33, 0x24, 0x0c, 0xf6, 0xfc,
  0x1b, 0x0f, 0x14, 0x0b, 0x21, 0xf8, 0x06, 0xff, 0x01, 0x09, 0xe0, 0x10,
  0x12, 0x03, 0x15, 0xf9, 0xee, 0x34, 0xd9, 0x14, 0x11, 0xe9, 0x03, 0x20,
  0x03, 0xf7, 0x02, 0x19, 0x3c, 0xe5, 0x05, 0xfe, 0xfb, 0x18, 0x10, 0xfc,
  0x1b, 0x09, 0x1b, 0x0e, 0x12, 0x1b, 0xf5, 0xf9, 0x21, 0x1a, 0x2b, 0xf3,
  0xe0, 0x0f, 0xf6, 0xd9, 0x0c, 0x01, 0xdd, 0x15, 0xf4, 0xf5, 0xf5, 0x14,
  0x1f, 0x11, 0xe0, 0xfd, 0x09, 0x00, 0xd3, 0xe3, 0x2d, 0x02, 0xec, 0x0c,
  0x2e, 0x07, 0xff, 0x15, 0x31, 0xf8, 0xf7, 0xea, 0xed, 0x0e, 0x24, 0xfc,
  0x33, 0xfa, 0xf1, 0xe0, 0xf8, 0x07, 0x05, 0xf9, 0x28, 0xee, 0x02, 0x18,
  0xfc, 0x15, 0xf8, 0xf4, 0xff, 0xfd, 0x22, 0x16, 0x0c, 0x27, 0x0a, 0xfa,
  0xed, 0xfc, 0x11, 0x03, 0x11, 0xf0, 0x1e, 0x08, 0x06, 0xf6, 0xe5, 0xff,
  0xfc, 0xf5, 0xd5, 0xef, 0xed, 0x09, 0xf5, 0xf4, 0x05, 0x0d, 0xff, 0xf9,
  0xd6, 0x29, 0x0f, 0x12, 0xfa, 0xef, 0x0a, 0x03, 0x06, 0xfc, 0x2b, 0x10,
  0x2d, 0xef, 0xf6, 0x0a, 0x1d, 0xf9, 0x07, 0x13, 0x07, 0x1a, 0x08, 0x0a,
  0x0e, 0xf2, 0xdc, 0x20, 0xeb, 0xf1, 0xe2, 0x1f, 0x21, 0x13, 0xee, 0x0a,
  0x01, 0x1a, 0x25, 0xfc, 0x0b, 0x15, 0xd8, 0x1e, 0xef, 0xfe, 0x03, 0x17,
  0x28, 0x13, 0x1a, 0x19, 0x21, 0xfa, 0xf3, 0x06, 0x1f, 0xe9, 0x0f, 0x10,
  0x0a, 0xe6, 0xdf, 0x15, 0x14, 0xf7, 0xcf, 0x08, 0xf6, 0xed, 0xfb, 0x15,
  0x1f, 0xdd, 0xe7, 0xf1, 0x11, 0x0b, 0xf8, 0x22, 0x06, 0xef, 0x04, 0xe6,
  0x03, 0x15, 0xdf, 0xe2, 0x07, 0xf2, 0x09, 0x10, 0x02, 0x0f, 0x0f, 0x1d,
  0x17, 0x0e, 0x13, 0x08, 0x0d, 0x2e, 0xf9, 0x2a, 0x0a, 0xfa, 0x0f, 0xfa,
  0x18, 0x01, 0x09, 0x00, 0x17, 0xed, 0xff, 0x0d, 0xd8, 0xf0, 0xec, 0xe9,
  0x0c, 0x17, 0x02, 0x03, 0x14, 0xe4, 0x15, 0xf4, 0xfc, 0xf3, 0x0f, 0xed,
  0x13, 0x20, 0xdd, 0xee, 0xfd, 0x09, 0x07, 0xe1, 0xfb, 0xec, 0xe6, 0xf8,
  0xf6, 0xff, 0x10, 0x1b, 0xe8, 0xed, 0x1e, 0xf9, 0x27, 0xfa, 0xec, 0x15,
  0x36, 0xd2, 0xf9, 0x25, 0xde, 0xf7, 0xf2, 0x19, 0x1f, 0xf1, 0x12, 0xfe,
  0x09, 0xfd, 0xfb, 0x07, 0x2e, 0x1e, 0x11, 0x15, 0x0d, 0xf6, 0x07, 0xef,
  0x41, 0xf2, 0x12, 0x01, 0x12, 0xdb, 0xd9, 0x07, 0x20, 0x17, 0x22, 0x1b,
  0x09, 0xd5, 0x00, 0x04, 0x28, 0xf0, 0x2f, 0xee, 0x0c, 0x1d, 0xe0, 0xf9,
  0x14, 0xf6, 0x06, 0x05, 0xfc, 0x1b, 0xdf, 0xfc, 0xf7, 0x02, 0xf7, 0xee,
  0x0a, 0x14, 0xf8, 0x07, 0x08, 0xda, 0x11, 0x19, 0x03, 0xf6, 0x06, 0x0b,
  0xfa, 0xe2, 0x04, 0x23, 0x00, 0xff, 0xef, 0x0a, 0xf6, 0x00, 0xfc, 0x13,
  0x05, 0xec, 0x08, 0xf6, 0xf3, 0xf3, 0x22, 0x07, 0xf4, 0xd7, 0x19, 0x21,
  0xf7, 0xfd, 0x1b, 0xe9, 0x03, 0x03, 0xf8, 0x04, 0xf0, 0x06, 0x23, 0x01,
  0xf8, 0x2a, 0xe4, 0x1f, 0x07, 0x19, 0x0b, 0xe9, 0x06, 0xe2, 0xec, 0x01,
  0x00, 0x05, 0x06, 0x03, 0xf2, 0x1b, 0xee, 0x16, 0x0b, 0xf9, 0x0d, 0xec,
  0xfc, 0xf4, 0x0d, 0xff, 0xf4, 0x20, 0x1a, 0x0a, 0xf2, 0xd9, 0x0f, 0x07,
  0xf8, 0xf2, 0x13, 0xf3, 0x1d, 0x26, 0xfa, 0x15, 0x0c, 0xf0, 0x07, 0xf8,
  0x12, 0x08, 0x02, 0x1b, 0x22, 0xfc, 0x07, 0x10, 0xd7, 0x2c, 0x18, 0x0c,
  0x2b, 0xd7, 0x1d, 0x03, 0x06, 0xf8, 0x0b, 0x12, 0x2a, 0x13, 0x18, 0x09,
  0x0d, 0x05, 0xf7, 0x0d, 0x45, 0xee, 0x2b, 0x03, 0x0d, 0xf2, 0xfb, 0x06,
  0x32, 0x0a, 0x27, 0xdd, 0xf6, 0xf3, 0xdb, 0x09, 0x2c, 0x11, 0x25, 0xfc,
  0x12, 0x0c, 0xdc, 0x08, 0x0c, 0x0a, 0x01, 0x13, 0x07, 0xfb, 0xd1, 0x32,
  0xf6, 0x27, 0xf1, 0xe5, 0x09, 0xef, 0xed, 0x15, 0x04, 0xe3, 0xf8, 0x00,
  0x1a, 0x06, 0x0a, 0x1d, 0x09, 0x00, 0x08, 0x1d, 0x0e, 0x0f, 0xe8, 0x16,
  0x06, 0xdc, 0xfe, 0x10, 0x13, 0x19, 0x1e, 0x05, 0x02, 0xf5, 0xf7, 0xf4,
  0x23, 0x25, 0xf8, 0x05, 0xf3, 0xf7, 0x19, 0x2f, 0x07, 0x1f, 0xff, 0x0f,
  0x0e, 0xe6, 0x22, 0x02, 0x02, 0x05, 0xf8, 0xfe, 0x0f, 0xfe, 0x0b, 0x16,
  0xf7, 0xe8, 0xfb, 0x24, 0x12, 0xe8, 0xf4, 0xf6, 0xf9, 0xfb, 0x22, 0xf3,
  0xf6, 0x00, 0x23, 0x2a, 0xf8, 0xf2, 0xe6, 0xf2, 0x08, 0x26, 0x03, 0x05,
  0x13, 0x0c, 0x08, 0xff, 0xf0, 0x05, 0xea, 0xf7, 0xde, 0xd7, 0x24, 0x07,
  0x29, 0x08, 0xf8, 0xf6, 0xe5, 0xe9, 0xe7, 0x0e, 0x25, 0xed, 0x05, 0xff,
  0xe0, 0xf0, 0xe0, 0x25, 0x26, 0x1d, 0x02, 0x1d, 0x0f, 0x04, 0x03, 0x27,
  0x46, 0x03, 0xf2, 0xec, 0xfb, 0xee, 0xfa, 0x14, 0x4a, 0xf4, 0x2a, 0xd0,
  0x08, 0x12, 0x15, 0x15, 0x2f, 0x15, 0x1f, 0x11, 0xec, 0x0c, 0xf1, 0x1f,
  0x1c, 0x1b, 0x13, 0x26, 0xfb, 0x02, 0xf3, 0x31, 0x10, 0x02, 0x05, 0x06,
  0x12, 0xff, 0xfb, 0x0e, 0x0f, 0xf2, 0xdd, 0x02, 0x24, 0x0a, 0x00, 0x0e,
  0xfa, 0x1e, 0x02, 0xfc, 0x0e, 0xea, 0xec, 0x17, 0x08, 0x13, 0xed, 0x19,
  0x1c, 0xe9, 0x01, 0x02, 0x0a, 0xec, 0x11, 0x1b, 0xf6, 0x14, 0xea, 0xff,
  0xf4, 0xe5, 0x09, 0x2f, 0x04, 0x0c, 0xe0, 0xff, 0xec, 0xfa, 0x0b, 0x17,
  0xf3, 0xfc, 0xfa, 0xfe, 0x16, 0xed, 0xea, 0xf9, 0x04, 0x00, 0x15, 0x18,
  0x10, 0xd4, 0x08, 0xec, 0xea, 0xee, 0x0b, 0x09, 0x0c, 0x12, 0x1a, 0xed,
  0xf2, 0xe5, 0xee, 0xfa, 0x0f, 0xfd, 0x16, 0x0f, 0xfe, 0x19, 0x08, 0x18,
  0xec, 0xff, 0xea, 0xef, 0xf7, 0x05, 0xf8, 0x1e, 0xe0, 0xf0, 0x03, 0xfb,
  0x04, 0xfe, 0xff, 0x2f, 0x1e, 0xf6, 0x11, 0x0e, 0xff, 0xf9, 0xdf, 0x25,
  0x24, 0x17, 0x1a, 0xfb, 0xce, 0x14, 0xde, 0x1f, 0x31, 0x02, 0xe1, 0x16,
  0xfa, 0xe1, 0xeb, 0x19, 0x4b, 0xec, 0xdf, 0xde, 0xe6, 0xf7, 0x11, 0x20,
  0x52, 0x09, 0x32, 0xf3, 0xe5, 0x0a, 0xec, 0x05, 0x35, 0x0e, 0x10, 0xfc,
  0xfb, 0xf7, 0xd3, 0x16, 0x14, 0x14, 0x1c, 0x24, 0xf7, 0xf7, 0xef, 0x13,
  0x10, 0x02, 0xee, 0xfc, 0x0f, 0x23, 0xc5, 0x21, 0x08, 0x2d, 0xf7, 0xee,
  0x24, 0xea, 0xd7, 0xfe, 0x09, 0x0a, 0xf1, 0x03, 0x07, 0x14, 0xd0, 0x0a,
  0xeb, 0xcc, 0xfa, 0x20, 0xf9, 0xf5, 0xda, 0x26, 0x02, 0xea, 0xda, 0x0d,
  0x0c, 0x06, 0x0f, 0x1b, 0x17, 0xd9, 0xe8, 0x2d, 0xef, 0xe8, 0xd3, 0x10,
  0xff, 0x10, 0x09, 0x01, 0xf5, 0x01, 0xf2, 0x09, 0xf6, 0x0c, 0x02, 0x10,
  0xef, 0x12, 0xf2, 0x0f, 0x16, 0xf1, 0xe1, 0x0e, 0xfe, 0x0a, 0x13, 0xfc,
  0x22, 0xeb, 0xef, 0x0b, 0xd1, 0xe3, 0xcc, 0x17, 0x20, 0x08, 0x0c, 0xf1,
  0xec, 0xf4, 0x05, 0x21, 0xf0, 0xec, 0xea, 0xfb, 0x0d, 0xf5, 0xed, 0x15,
  0xf5, 0xf9, 0xe4, 0xea, 0x12, 0xf9, 0x10, 0x3c, 0xf0, 0x0d, 0xe1, 0xf4,
  0xfb, 0x05, 0xe2, 0x42, 0x33, 0xde, 0x1c, 0x1c, 0xe3, 0x0c, 0xc4, 0x32,
  0x47, 0x0f, 0xee, 0x15, 0xea, 0x03, 0xe9, 0x1b, 0x57, 0xed, 0xfe, 0x0a,
  0xeb, 0xeb, 0x20, 0x09, 0x4d, 0xf6, 0x13, 0xfc, 0xea, 0xf1, 0x03, 0xef,
  0x31, 0x07, 0x1e, 0xfb, 0xe7, 0xfb, 0xdc, 0x10, 0x1e, 0xf3, 0x0b, 0x09,
  0x0e, 0xf9, 0xc3, 0x17, 0x0a, 0xe3, 0x07, 0xec, 0xf1, 0x30, 0xaf, 0x08,
  0x14, 0x0a, 0xe5, 0xe6, 0x22, 0xe1, 0xd5, 0x15, 0xeb, 0xd7, 0xf3, 0x0d,
  0xf2, 0x10, 0xd1, 0x12, 0x07, 0x06, 0xfa, 0x09, 0x01, 0xd3, 0xff, 0x1f,
  0x25, 0xef, 0xe4, 0x06, 0xf4, 0x2a, 0xf9, 0x03, 0x2f, 0x18, 0xf6, 0xfc,
  0xf6, 0xd7, 0xd9, 0x1e, 0x02, 0xfe, 0xe6, 0x08, 0xd9, 0xf6, 0xf2, 0x2a,
  0x01, 0x0a, 0xed, 0x00, 0x11, 0x1a, 0xdb, 0x0c, 0x2a, 0xff, 0x14, 0x03,
  0xf7, 0xf4, 0xf7, 0x01, 0x0c, 0x05, 0x02, 0xe6, 0xe4, 0x05, 0xf9, 0x0d,
  0x1d, 0xdf, 0xfc, 0x01, 0xe6, 0x00, 0xf9, 0x05, 0xf6, 0x02, 0xe7, 0xf4,
  0xf0, 0xfd, 0xe4, 0xf4, 0x14, 0xee, 0xf9, 0xef, 0x26, 0x0e, 0xe2, 0x34,
  0x3d, 0x0f, 0x14, 0xf1, 0xe7, 0xee, 0xcd, 0x22, 0x60, 0xe2, 0xff, 0xfb,
  0xb8, 0xd1, 0xb5, 0x17, 0x42, 0xf5, 0xe3, 0x1a, 0xe4, 0xdf, 0xe0, 0x0e,
  0x55, 0xe7, 0xf1, 0xf7, 0xe7, 0xf3, 0xe3, 0xfe, 0x5c, 0x06, 0x28, 0xfd,
  0x07, 0xfe, 0xea, 0xfd, 0x37, 0x05, 0x3a, 0x04, 0xf3, 0x1b, 0xc3, 0x12,
  0x13, 0xe4, 0xfc, 0xfc, 0xed, 0xed, 0xbb, 0x31, 0x18, 0x0a, 0xf5, 0xf9,
  0xfb, 0x1c, 0xaf, 0x01, 0xf6, 0x0d, 0xe8, 0xf7, 0x24, 0x0a, 0xa3, 0x10,
  0x09, 0xe6, 0xfb, 0x0f, 0x00, 0xf9, 0xe3, 0x11, 0xec, 0x06, 0x13, 0xe9,
  0xe1, 0xee, 0xdf, 0x0b, 0x08, 0xd9, 0xe8, 0x1d, 0xfb, 0x1a, 0x15, 0x10,
  0x32, 0x12, 0xf5, 0xf3, 0xec, 0x28, 0x0d, 0x0b, 0x23, 0x0f, 0xf7, 0x06,
  0xd1, 0xe0, 0xdf, 0x0b, 0x1d, 0xe7, 0x12, 0x10, 0x07, 0x23, 0x02, 0x04,
  0x05, 0x19, 0xe0, 0xef, 0xfc, 0xed, 0xe3, 0x0b, 0x0d, 0x0b, 0x15, 0x11,
  0xc4, 0xda, 0x10, 0x20, 0x24, 0xee, 0xda, 0xf7, 0xec, 0xf5, 0xe3, 0x1d,
  0x02, 0x1f, 0xf1, 0xff, 0xfd, 0xe4, 0x0a, 0x18, 0x00, 0xfa, 0x10, 0xff,
  0x21, 0x06, 0x0b, 0x35, 0x10, 0x0c, 0x06, 0xfd, 0x27, 0xe9, 0xb8, 0x49,
  0x52, 0xe6, 0xf8, 0xee, 0xcd, 0x0e, 0xa7, 0x26, 0x62, 0xfa, 0xef, 0x1f,
  0xe0, 0xf0, 0xcf, 0x17, 0x6d, 0x05, 0x08, 0xee, 0xf1, 0xfc, 0xf7, 0x15,
  0x64, 0x07, 0x1a, 0xe6, 0xfb, 0xed, 0xe5, 0xfa, 0x27, 0xf1, 0x28, 0xf4,
  0x09, 0xfb, 0xf2, 0xfb, 0x28, 0x00, 0xec, 0xf2, 0x06, 0x10, 0xae, 0x17,
  0x1f, 0x19, 0xe6, 0xe9, 0x18, 0x23, 0x9b, 0x24, 0x02, 0x0c, 0x00, 0xd9,
  0x1c, 0x21, 0xab, 0x16, 0x09, 0xf3, 0x05, 0x02, 0xf1, 0x2b, 0xcf, 0x2e,
  0x0d, 0x02, 0x0c, 0x00, 0xf2, 0xfa, 0x02, 0x1c, 0xfb, 0xfc, 0xcd, 0xff,
  0xf5, 0x0c, 0xce, 0x09, 0x2b, 0xe8, 0x00, 0xf9, 0xdb, 0x15, 0xe6, 0xf4,
  0x0d, 0xe9, 0x15, 0xfb, 0xeb, 0xf1, 0xc6, 0x11, 0x0e, 0xe6, 0xe6, 0xff,
  0x16, 0xe6, 0xe8, 0x07, 0xfd, 0x0e, 0xed, 0xf4, 0xf7, 0xe1, 0xfa, 0x0c,
  0x18, 0xf2, 0x07, 0x0a, 0xeb, 0xfc, 0xf5, 0x0b, 0x15, 0xe4, 0xef, 0x02,
  0xf3, 0x10, 0xdd, 0x05, 0xed, 0x05, 0x14, 0x03, 0xed, 0x04, 0xdf, 0xe7,
  0xef, 0x1b, 0xe8, 0xf4, 0x21, 0xf8, 0x05, 0x24, 0x3d, 0x0c, 0x22, 0x02,
  0xfb, 0x0f, 0x98, 0x30, 0x58, 0xfa, 0xdd, 0xf3, 0xe5, 0xd8, 0xac, 0x3a,
  0x44, 0xfa, 0xce, 0x12, 0xea, 0xe1, 0xd7, 0x15, 0x5d, 0x0e, 0xe8, 0xf4,
  0xc9, 0xe2, 0xfe, 0x0a, 0x3c, 0x13, 0x1d, 0xe6, 0x07, 0x15, 0xf2, 0x15,
  0x28, 0x26, 0x2a, 0x19, 0xe7, 0xec, 0xdb, 0x2a, 0xf3, 0xf2, 0x03, 0xee,
  0xf2, 0xf8, 0xa2, 0x2b, 0x26, 0x0e, 0xf2, 0xeb, 0x21, 0xe7, 0xc3, 0x1a,
  0x10, 0xf7, 0x04, 0xff, 0x02, 0xfe, 0xa5, 0x1e, 0x18, 0xee, 0x05, 0x14,
  0xeb, 0xf4, 0xe1, 0x0c, 0xf2, 0xe3, 0x33, 0x08, 0xe2, 0xf3, 0xe2, 0xf5,
  0x15, 0xf4, 0xfc, 0x17, 0x0a, 0x02, 0xe3, 0x03, 0x20, 0xf7, 0xf2, 0xfb,
  0xf4, 0xfd, 0xee, 0x00, 0x2a, 0xd6, 0xf5, 0xf7, 0xdc, 0xfb, 0xf2, 0x15,
  0x13, 0xed, 0xfd, 0x1b, 0x02, 0x1a, 0xcd, 0x15, 0x21, 0xee, 0xf6, 0x11,
  0xfc, 0xd4, 0xc8, 0xec, 0x1c, 0x27, 0x03, 0xf9, 0xd9, 0x04, 0xfa, 0x03,
  0x19, 0x1b, 0x08, 0x00, 0x00, 0xfd, 0x17, 0x12, 0x1a, 0x03, 0xfe, 0xfe,
  0xf4, 0xdc, 0xed, 0x17, 0xfa, 0xfa, 0x1a, 0x09, 0x13, 0x2a, 0x05, 0x38,
  0x2d, 0x11, 0x0a, 0xfb, 0x18, 0xdb, 0xb9, 0x4a, 0x4e, 0xf0, 0xd4, 0x03,
  0xe0, 0x00, 0xd6, 0x36, 0x55, 0x03, 0xe9, 0x23, 0xf4, 0xfa, 0xcb, 0x1b,
  0x60, 0xf4, 0xe2, 0xf8, 0xff, 0xfd, 0xdb, 0xf6, 0x50, 0x1c, 0x39, 0xf7,
  0x0d, 0xf4, 0x07, 0xfc, 0x24, 0xea, 0x35, 0xe7, 0xf3, 0x03, 0xca, 0x14,
  0x07, 0x18, 0x1a, 0xe8, 0xe3, 0xf0, 0xbd, 0x12, 0x1d, 0x18, 0x0b, 0xed,
  0x0b, 0xff, 0x97, 0x20, 0x24, 0x11, 0x1a, 0xe0, 0x11, 0xfa, 0xc6, 0x1a,
  0x1e, 0x14, 0xe0, 0x0d, 0x01, 0xf3, 0xf0, 0x1c, 0xef, 0x13, 0x1f, 0x02,
  0xe8, 0xf4, 0xfd, 0x0a, 0x22, 0xe3, 0x04, 0xe6, 0x0c, 0x2e, 0xf3, 0xf9,
  0x17, 0xf0, 0x09, 0x01, 0xe4, 0x0d, 0xee, 0xf2, 0x02, 0xe7, 0x0e, 0x04,
  0xd7, 0xf9, 0xf5, 0x0c, 0x03, 0xec, 0xf7, 0x0c, 0x0b, 0x04, 0xe2, 0x06,
  0x25, 0x0a, 0xe8, 0xfd, 0xff, 0xf9, 0xed, 0x08, 0x2f, 0x22, 0xf1, 0x17,
  0xf3, 0xed, 0xf1, 0x04, 0x1a, 0xdd, 0x0b, 0x14, 0xfd, 0xf6, 0xfa, 0x12,
  0x02, 0x14, 0xf3, 0x07, 0xf1, 0x06, 0x0a, 0xf1, 0x08, 0xeb, 0xf7, 0xfd,
  0x1c, 0x24, 0xe6, 0x2a, 0x0e, 0x04, 0xfd, 0x09, 0xf1, 0x00, 0xa3, 0x44,
  0x55, 0x13, 0xed, 0x07, 0xfb, 0xf6, 0xb7, 0x55, 0x30, 0x06, 0xf2, 0x2b,
  0xfd, 0xe9, 0xda, 0x25, 0x61, 0x1c, 0xf2, 0x03, 0xf7, 0x00, 0xe7, 0xf7,
  0x53, 0x1a, 0x47, 0xfb, 0x04, 0x0e, 0xef, 0x13, 0x24, 0x06, 0x42, 0xfa,
  0xfa, 0xf7, 0xdb, 0x1b, 0x2a, 0x07, 0x12, 0xdf, 0xfd, 0x22, 0xb6, 0x3d,
  0x1b, 0x07, 0x02, 0xf0, 0x2d, 0xfe, 0xbc, 0x2d, 0x0e, 0x26, 0xfc, 0xfc,
  0x0c, 0x03, 0xd5, 0x0a, 0x05, 0xf4, 0xf8, 0x07, 0x06, 0xf4, 0x0c, 0x1d,
  0xe6, 0x0c, 0x0c, 0x13, 0xfd, 0x25, 0x05, 0x02, 0x2c, 0xdf, 0xea, 0x06,
  0xfd, 0xfb, 0xfa, 0x06, 0x34, 0xf9, 0x09, 0x07, 0xf7, 0xe5, 0xd6, 0x03,
  0x0c, 0xfc, 0x20, 0xfa, 0xe2, 0xd2, 0xcd, 0x16, 0x22, 0xf5, 0xf7, 0x07,
  0x09, 0x07, 0xe4, 0x15, 0x16, 0x18, 0x0c, 0xfe, 0xe9, 0x25, 0xf5, 0xfc,
  0x16, 0xff, 0xfd, 0xf8, 0xf8, 0x1f, 0x07, 0xe2, 0x08, 0xfd, 0x0e, 0x0b,
  0x11, 0x0e, 0xe5, 0x06, 0xf8, 0x00, 0x05, 0xfe, 0xf5, 0xcc, 0x05, 0xf5,
  0xf4, 0xf6, 0x06, 0xf2, 0xdc, 0xfb, 0xe6, 0x20, 0x05, 0x03, 0x0d, 0x07,
  0xfe, 0xe8, 0xa6, 0x3b, 0x47, 0x0a, 0xfa, 0x03, 0xf7, 0xf9, 0xc6, 0x3c,
  0x45, 0x0f, 0xe8, 0x1c, 0xfc, 0x01, 0xd1, 0x18, 0x4c, 0x06, 0xf4, 0xf4,
  0xfd, 0x26, 0x0d, 0xfe, 0x58, 0x26, 0x1c, 0xff, 0x0d, 0xfa, 0x03, 0xf2,
  0x19, 0x1b, 0x1a, 0x00, 0xe0, 0xe4, 0xea, 0xfb, 0x0d, 0x27, 0x04, 0xd3,
  0xf1, 0x11, 0xd7, 0x39, 0x1d, 0x3a, 0xfd, 0xfd, 0x26, 0x25, 0xd1, 0x10,
  0x0f, 0x05, 0x1c, 0xf2, 0x1f, 0x26, 0xd6, 0x1d, 0x0d, 0xf5, 0xf3, 0xfe,
  0xe8, 0x20, 0x12, 0xf8, 0x05, 0x0e, 0xfe, 0x00, 0xde, 0x0d, 0xfd, 0x06,
  0x23, 0xd9, 0xee, 0xf7, 0xed, 0xee, 0x02, 0x09, 0x21, 0xea, 0xf4, 0xfd,
  0xc4, 0x12, 0x10, 0xfc, 0x13, 0xe0, 0x06, 0xf7, 0xf6, 0xf7, 0xea, 0x16,
  0x04, 0x11, 0xe7, 0xf0, 0xd9, 0xd2, 0xdc, 0xf9, 0x06, 0xe7, 0xed, 0xfb,
  0xf7, 0xff, 0xf7, 0xed, 0x12, 0xf6, 0xf9, 0x1e, 0xfb, 0xf2, 0xde, 0x00,
  0x20, 0xf7, 0x03, 0xfa, 0x04, 0xf0, 0x03, 0x02, 0x04, 0xff, 0xed, 0x02,
  0xfb, 0xf7, 0x00, 0x10, 0xe5, 0xf1, 0xf4, 0xfd, 0xf6, 0xe7, 0x00, 0x2d,
  0xf3, 0xf2, 0x0d, 0x05, 0x0c, 0xfa, 0xab, 0x3a, 0x34, 0x1d, 0xca, 0x02,
  0xef, 0x04, 0xc2, 0x3e, 0x2c, 0x19, 0xe1, 0x30, 0xe1, 0x0d, 0xcf, 0x1d,
  0x4d, 0x2d, 0xf1, 0xe9, 0xe4, 0x0a, 0xf2, 0xf4, 0x49, 0x24, 0x08, 0xf7,
  0x00, 0xfc, 0xe4, 0xf7, 0x21, 0x2f, 0x4b, 0xf8, 0xe8, 0x17, 0xcf, 0x22,
  0xff, 0x0c, 0x10, 0xe7, 0x07, 0x02, 0xd4, 0x28, 0x0c, 0x1a, 0x04, 0xe2,
  0x31, 0x33, 0xdd, 0x1d, 0x22, 0x12, 0x07, 0xd6, 0x1c, 0x08, 0xb9, 0x23,
  0xf4, 0xfe, 0xee, 0x11, 0xe2, 0x00, 0xf6, 0xff, 0xfc, 0x11, 0x1a, 0x14,
  0xf1, 0xe0, 0xf9, 0x0a, 0x0b, 0xfe, 0xf6, 0x05, 0xda, 0xf0, 0xea, 0x03,
  0x25, 0xed, 0x0c, 0x09, 0xec, 0x07, 0xfe, 0x01, 0x21, 0xf7, 0x28, 0xf7,
  0xee, 0xf8, 0xc8, 0x04, 0x04, 0xe1, 0x1f, 0xfa, 0xf6, 0xf9, 0xd7, 0xda,
  0x20, 0x08, 0x02, 0xe8, 0x07, 0x26, 0xe4, 0x18, 0x21, 0xfc, 0x01, 0x07,
  0x10, 0xdc, 0xfb, 0xfa, 0x13, 0x12, 0xe8, 0x19, 0x00, 0xee, 0xf4, 0xea,
  0x18, 0xfd, 0x11, 0x07, 0xf2, 0xe8, 0x00, 0xf6, 0xf0, 0x29, 0xfe, 0x01,
  0x07, 0xdf, 0x05, 0x1a, 0xfb, 0xfa, 0x05, 0x07, 0xeb, 0x30, 0xa0, 0x50,
  0x3b, 0x05, 0xcf, 0xfb, 0xec, 0xde, 0xba, 0x35, 0x40, 0x06, 0x06, 0x2b,
  0xe2, 0x21, 0xbc, 0x09, 0x6c, 0x26, 0xde, 0x08, 0x07, 0xf6, 0x07, 0x08,
  0x5c, 0x27, 0x22, 0xdf, 0xf7, 0xf1, 0xec, 0xde, 0x07, 0x08, 0x34, 0xd9,
  0xf2, 0x1d, 0xda, 0x1d, 0x09, 0xf7, 0x10, 0xd1, 0xf1, 0xf1, 0xd0, 0x35,
  0x10, 0x0c, 0x04, 0xe3, 0x2c, 0x2d, 0xb0, 0x22, 0x17, 0x14, 0x16, 0xf4,
  0xfd, 0xfb, 0xb2, 0x08, 0x16, 0x0a, 0xe8, 0x0b, 0xe4, 0x14, 0x21, 0x23,
  0x19, 0x1b, 0x02, 0x0a, 0xd7, 0x1c, 0xf7, 0x0e, 0x26, 0xf3, 0xf2, 0x10,
  0xf6, 0xfb, 0xe2, 0xfd, 0x2e, 0xf6, 0x00, 0xf8, 0xeb, 0x06, 0xfd, 0x10,
  0x0f, 0x03, 0x03, 0x03, 0xeb, 0x2a, 0xf6, 0x0b, 0xf7, 0x11, 0x0a, 0xf3,
  0x05, 0x0a, 0xdc, 0x13, 0xfc, 0xf1, 0xfb, 0x11, 0xf4, 0xfd, 0xec, 0xea,
  0x24, 0x04, 0x02, 0x04, 0xf1, 0x0a, 0xf3, 0x0e, 0x19, 0xf5, 0xef, 0xfe,
  0x04, 0xfa, 0xf6, 0x04, 0x15, 0x0c, 0x0c, 0x0a, 0xed, 0xe0, 0xf4, 0xf7,
  0xf1, 0xfc, 0x01, 0xf8, 0x12, 0x24, 0xf0, 0x1d, 0x03, 0x17, 0x1a, 0x13,
  0x08, 0xf9, 0xb1, 0x2d, 0x30, 0x1f, 0xf9, 0xf4, 0xf1, 0x00, 0xc4, 0x45,
  0x55, 0x1d, 0xfa, 0x25, 0xe1, 0x05, 0xcf, 0x26, 0x39, 0x18, 0xe4, 0xf7,
  0xea, 0x24, 0xfb, 0xfa, 0x50, 0x2b, 0x18, 0xcf, 0x07, 0x00, 0xf6, 0x03,
  0x17, 0x09, 0x34, 0xca, 0xcd, 0x10, 0xe1, 0xf9, 0x0f, 0x2c, 0xea, 0xe1,
  0xfc, 0x25, 0xbe, 0x2e, 0x1c, 0x21, 0xf7, 0xe2, 0x12, 0x13, 0xc2, 0x2a,
  0x18, 0x24, 0xf9, 0xfc, 0xf8, 0x31, 0xd0, 0x10, 0x04, 0xf2, 0x07, 0x09,
  0xd6, 0xf3, 0x01, 0xf5, 0x03, 0x0f, 0x1b, 0x11, 0xe6, 0x21, 0x18, 0xfc,
  0x0c, 0xee, 0xf9, 0xf8, 0xd7, 0xdc, 0x05, 0xed, 0x1b, 0xe6, 0xef, 0xff,
  0xe4, 0xdd, 0xe7, 0xf9, 0x1e, 0xee, 0xfe, 0xfe, 0xdc, 0xf1, 0xee, 0xfe,
  0x15, 0x0b, 0x24, 0x02, 0x05, 0xfc, 0xd5, 0x10, 0x0d, 0xfa, 0xfa, 0x03,
  0x07, 0xf7, 0xe2, 0x14, 0x1f, 0x07, 0xfa, 0x0b, 0x0c, 0x18, 0xf1, 0x05,
  0x04, 0x1d, 0xe5, 0x08, 0x07, 0xea, 0x0a, 0x07, 0xf5, 0x09, 0xec, 0xf4,
  0x00, 0xe2, 0x01, 0xec, 0xef, 0x20, 0xf0, 0xf2, 0xe3, 0x10, 0xea, 0x39,
  0x09, 0x2f, 0xed, 0x1f, 0xeb, 0x0e, 0xdb, 0x52, 0x3f, 0x20, 0xeb, 0xfc,
  0xf5, 0xfe, 0xc5, 0x2e, 0x4c, 0x25, 0xf4, 0x3a, 0xcc, 0xfd, 0xf0, 0x26,
  0x51, 0x04, 0xf2, 0xf7, 0xe4, 0xee, 0xf4, 0xf5, 0x57, 0x09, 0x07, 0xe6,
  0x16, 0xd2, 0xea, 0xf1, 0x27, 0x11, 0x24, 0xca, 0xd1, 0xf4, 0xda, 0x03,
  0x22, 0x00, 0x29, 0xe2, 0xf6, 0x0f, 0xdf, 0x2c, 0x0e, 0x17, 0xea, 0xcb,
  0x24, 0xf2, 0xd6, 0x31, 0x11, 0x18, 0xfe, 0xf1, 0xf5, 0x07, 0xae, 0xfd,
  0x1a, 0x0e, 0xf0, 0x17, 0xe1, 0x0e, 0xed, 0x0f, 0x16, 0x19, 0x1b, 0x0c,
  0xed, 0x07, 0x01, 0x01, 0x18, 0x0a, 0x19, 0xfd, 0xd7, 0xe4, 0xe6, 0x06,
  0x0d, 0xdf, 0xf4, 0x01, 0xec, 0x2b, 0xd5, 0x18, 0x19, 0x01, 0x32, 0xf2,
  0xdd, 0x18, 0xe1, 0x0a, 0x07, 0x00, 0xf7, 0x07, 0x00, 0x31, 0xef, 0x08,
  0x0f, 0xe5, 0x03, 0x25, 0x16, 0xf8, 0xed, 0x1c, 0x1a, 0xef, 0x10, 0x00,
  0x0f, 0x19, 0x08, 0xf7, 0x0d, 0x14, 0xfb, 0x0c, 0x04, 0x1e, 0xdd, 0x02,
  0xfe, 0x02, 0xf6, 0x04, 0xfa, 0xfa, 0xfa, 0x14, 0xe8, 0xff, 0x22, 0x02,
  0xfa, 0x05, 0xff, 0x28, 0x09, 0x0b, 0xeb, 0x25, 0xec, 0x19, 0xbe, 0x20,
  0x39, 0x27, 0x0d, 0x09, 0xdc, 0xee, 0xdc, 0x4b, 0x50, 0x2a, 0xe7, 0x2e,
  0xcb, 0xe5, 0xfb, 0x06, 0x4f, 0x09, 0xf9, 0x02, 0xed, 0x13, 0xe3, 0xe5,
  0x4c, 0x14, 0x15, 0xd2, 0x0f, 0x1c, 0x20, 0xf3, 0x17, 0xf9, 0x1d, 0xf0,
  0xdc, 0x0a, 0xd5, 0x09, 0x27, 0x12, 0x0f, 0xbc, 0xf5, 0xf3, 0xbc, 0x23,
  0x18, 0x2a, 0xfb, 0xc6, 0x1b, 0xf8, 0xdb, 0x1f, 0xfe, 0x15, 0xfa, 0xe2,
  0xf6, 0xe3, 0xcf, 0x0d, 0x04, 0x16, 0xe9, 0x16, 0xdd, 0x1e, 0x07, 0x06,
  0xeb, 0xfd, 0x0d, 0x08, 0xd9, 0x19, 0xf3, 0xed, 0x16, 0xd9, 0x03, 0xf7,
  0xe1, 0x0d, 0xfe, 0x17, 0x19, 0xfb, 0xfe, 0x0c, 0xc3, 0x13, 0xeb, 0x0b,
  0x0b, 0xfa, 0x0c, 0x13, 0xe0, 0x0a, 0xee, 0x14, 0x01, 0xf2, 0x14, 0xee,
  0x08, 0x12, 0x01, 0xfc, 0x0f, 0x07, 0x14, 0x05, 0x13, 0x07, 0xf7, 0x09,
  0x18, 0x11, 0x03, 0x03, 0xff, 0x02, 0xd8, 0x10, 0xfe, 0x24, 0xf2, 0xee,
  0xfe, 0x16, 0xfc, 0x01, 0xf2, 0x02, 0xe1, 0x0c, 0xe7, 0x05, 0x08, 0xee,
  0xe4, 0xfb, 0x0c, 0x0e, 0x08, 0xe4, 0xfc, 0x27, 0xec, 0x07, 0x17, 0x19,
  0xee, 0xee, 0xdb, 0x55, 0x32, 0x0e, 0x0b, 0x00, 0xef, 0xf1, 0xd3, 0x30,
  0x32, 0xeb, 0x09, 0x12, 0xe0, 0x05, 0xd9, 0x00, 0x57, 0xfd, 0xf4, 0x01,
  0xf0, 0x29, 0xe5, 0xfd, 0x3d, 0x19, 0x21, 0xc6, 0xe8, 0x08, 0xfb, 0xfe,
  0x1b, 0xf7, 0x47, 0xeb, 0xc9, 0x19, 0xe2, 0x12, 0x2c, 0x31, 0x08, 0xc8,
  0xfb, 0xf7, 0xe0, 0x2b, 0x20, 0x38, 0x02, 0xb3, 0x20, 0x0d, 0xdd, 0x3a,
  0x08, 0x05, 0x0d, 0xf5, 0xfb, 0xf9, 0xe7, 0x1c, 0x11, 0x08, 0x02, 0x26,
  0xf6, 0x2b, 0x07, 0xea, 0x01, 0x03, 0x1d, 0x15, 0xf1, 0x1c, 0x21, 0xea,
  0x0d, 0xff, 0x04, 0x07, 0xbc, 0xe1, 0xe0, 0x22, 0x1d, 0xf1, 0xf9, 0x03,
  0xd4, 0xe7, 0xed, 0x19, 0x14, 0xed, 0x1f, 0xfc, 0xfc, 0x28, 0xca, 0x22,
  0x0b, 0x0e, 0x0f, 0x09, 0x06, 0xea, 0xf8, 0x05, 0x0c, 0x14, 0xf7, 0x19,
  0xfb, 0x12, 0x10, 0x0b, 0xf1, 0x16, 0xef, 0xf4, 0x04, 0x29, 0xeb, 0xf7,
  0xeb, 0x0e, 0x0e, 0x0b, 0xf9, 0x0f, 0xe7, 0xfb, 0xef, 0xf2, 0xe0, 0xf8,
  0xf8, 0x2e, 0xeb, 0xf9, 0xed, 0xff, 0x19, 0xe6, 0x07, 0x20, 0xf8, 0x32,
  0x29, 0x2a, 0x15, 0x1e, 0x2e, 0x0e, 0xc7, 0x2f, 0x27, 0x12, 0x11, 0x08,
  0xc8, 0xf7, 0xca, 0x2b, 0x48, 0x1e, 0x15, 0x05, 0xe9, 0x15, 0xef, 0xfe,
  0x61, 0x12, 0xff, 0xfa, 0xd5, 0x1e, 0x02, 0xf1, 0x2a, 0x2f, 0x0c, 0xde,
  0xf2, 0x0f, 0xf4, 0x08, 0x1b, 0xfd, 0x42, 0xcb, 0xcf, 0x00, 0xd4, 0x07,
  0x10, 0x0d, 0x10, 0xb7, 0xe0, 0x25, 0xc6, 0x11, 0x23, 0x25, 0x24, 0xac,
  0x16, 0x0a, 0xcd, 0x1d, 0x07, 0x21, 0xfe, 0xe4, 0x09, 0xed, 0xef, 0x14,
  0x09, 0xfa, 0xfc, 0x14, 0xe1, 0xe3, 0xde, 0x04, 0xf7, 0x0f, 0xfa, 0x26,
  0xef, 0xe8, 0x09, 0xfa, 0xfc, 0x09, 0x0a, 0xf0, 0xdc, 0xde, 0xf3, 0xf7,
  0x11, 0xde, 0xf8, 0x06, 0xb2, 0x02, 0xe7, 0x16, 0x2e, 0xfc, 0x2c, 0xe6,
  0xf2, 0xf2, 0xe3, 0x12, 0x1f, 0xef, 0xf4, 0xfe, 0x00, 0x1b, 0xe0, 0x0b,
  0x18, 0x00, 0x08, 0x0b, 0xe1, 0x15, 0x05, 0xfb, 0x03, 0x01, 0xdf, 0x12,
  0xf9, 0x0b, 0x0c, 0x0f, 0x05, 0x2b, 0xf5, 0x1c, 0xee, 0x03, 0xe3, 0x0a,
  0xfe, 0x20, 0xfa, 0x10, 0xec, 0x1f, 0xff, 0x03, 0xd7, 0xfe, 0xf5, 0xff,
  0x08, 0xfb, 0x1c, 0x28, 0x13, 0x26, 0xf7, 0x01, 0x0c, 0x12, 0xf8, 0x3f,
  0x2c, 0x0e, 0xfa, 0xfb, 0xd0, 0xef, 0xd1, 0x2f, 0x47, 0xfa, 0x19, 0x10,
  0xdb, 0x13, 0x09, 0x22, 0x68, 0x0c, 0xf4, 0xf4, 0xee, 0x19, 0xdb, 0xf4,
  0x4c, 0x1d, 0x11, 0xe6, 0xf5, 0xf3, 0xeb, 0x09, 0x2b, 0x0b, 0x2e, 0xcb,
  0xca, 0x2d, 0xe8, 0x29, 0x0c, 0x2f, 0xf4, 0xca, 0xf7, 0xdd, 0xf2, 0x3d,
  0x37, 0x40, 0xff, 0xb0, 0x28, 0x05, 0xd4, 0x29, 0xf3, 0x0a, 0x07, 0xe7,
  0xfa, 0x01, 0xfb, 0x01, 0xff, 0x02, 0x0e, 0x1a, 0x01, 0x01, 0xf5, 0x13,
  0x00, 0x09, 0xfa, 0x1e, 0x00, 0x00, 0x0a, 0xfb, 0xff, 0xe0, 0x06, 0x02,
  0xf7, 0x1c, 0x24, 0xfa, 0x2e, 0x07, 0x09, 0xff, 0xf3, 0x1d, 0xe4, 0x14,
  0x0d, 0x0d, 0x0b, 0xf4, 0xfe, 0xfb, 0x11, 0x10, 0x1e, 0x1f, 0xfd, 0xfe,
  0xfc, 0x13, 0xe4, 0xff, 0x0e, 0x2a, 0xeb, 0xfb, 0xe5, 0xe0, 0xe3, 0x01,
  0x1b, 0x01, 0x0b, 0xfb, 0xea, 0x13, 0xfa, 0xfb, 0x14, 0x0d, 0x13, 0x12,
  0x0b, 0x05, 0xe5, 0x00, 0xe8, 0xe8, 0xf4, 0xfe, 0xdc, 0xfe, 0xcf, 0xd3,
  0xe2, 0x05, 0xf7, 0x12, 0x0f, 0xf3, 0x0e, 0x21, 0xfc, 0x26, 0xeb, 0x18,
  0xfe, 0x09, 0xef, 0x46, 0x18, 0x29, 0xe8, 0xfc, 0xd9, 0x14, 0xf8, 0x47,
  0x39, 0x1f, 0xfa, 0x26, 0x00, 0x0f, 0x09, 0x11, 0x65, 0xff, 0xd3, 0xea,
  0xd5, 0x0e, 0x06, 0xde, 0x50, 0x23, 0x12, 0xd2, 0xd2, 0xfa, 0xe1, 0xfb,
  0x1a, 0xf4, 0x32, 0xc4, 0xd4, 0x19, 0xdb, 0x0b, 0x1e, 0x09, 0x07, 0xc1,
  0x00, 0xf2, 0xe8, 0x20, 0x2c, 0x10, 0x10, 0x8c, 0x30, 0x19, 0xdb, 0x13,
  0xfb, 0x1b, 0x01, 0xde, 0x11, 0xf0, 0xe7, 0x07, 0xec, 0xf5, 0x02, 0x2e,
  0xd9, 0xfd, 0x21, 0x00, 0xf6, 0x2a, 0x03, 0x1b, 0x19, 0x20, 0x16, 0xf3,
  0x17, 0xf2, 0x19, 0x07, 0xe5, 0x02, 0x27, 0xfb, 0x04, 0xf5, 0xe5, 0xf7,
  0xd7, 0xfd, 0xde, 0x12, 0x23, 0x07, 0x1f, 0x06, 0xec, 0xf1, 0xf1, 0xf8,
  0x22, 0x1c, 0x10, 0xfc, 0x09, 0xe9, 0xfd, 0x00, 0x27, 0x1d, 0xf2, 0x02,
  0x07, 0x0e, 0xea, 0xfa, 0x0c, 0x1d, 0xf7, 0x0a, 0x09, 0xed, 0x1f, 0x09,
  0x24, 0x12, 0xf9, 0x08, 0xfe, 0xfd, 0xe3, 0x01, 0xe0, 0xf3, 0xf7, 0x07,
  0xe6, 0xf5, 0xe2, 0x00, 0xd9, 0xfb, 0xef, 0x13, 0x0f, 0x0c, 0x07, 0x09,
  0xf8, 0x1a, 0x14, 0x07, 0xe6, 0x00, 0xee, 0x2d, 0x13, 0x10, 0xdf, 0x06,
  0xdf, 0xea, 0x06, 0x21, 0x49, 0xed, 0xe6, 0xff, 0xf9, 0x0e, 0xf9, 0x11,
  0x5d, 0x0e, 0xd6, 0xe5, 0xc2, 0xe9, 0x04, 0xfb, 0x56, 0x09, 0x0c, 0xbb,
  0xfd, 0x11, 0xf6, 0x04, 0x29, 0xfe, 0x2e, 0xb2, 0xd5, 0xf7, 0xb8, 0x0f,
  0x1e, 0x04, 0x0a, 0xd0, 0xf5, 0xfe, 0xea, 0x2b, 0x3a, 0x56, 0x00, 0x99,
  0x24, 0xf0, 0xfe, 0x2c, 0x12, 0x33, 0xfc, 0xdd, 0x0e, 0x1b, 0xf2, 0x20,
  0xfc, 0x1b, 0x05, 0x0d, 0xf7, 0xec, 0x0c, 0x0e, 0x12, 0x1f, 0xf6, 0x24,
  0x0e, 0xe8, 0x11, 0x05, 0xfc, 0x06, 0x1a, 0x0b, 0xe6, 0x0b, 0x0b, 0x07,
  0x22, 0xe2, 0x02, 0xfa, 0xfc, 0x1d, 0xfd, 0xf5, 0x24, 0xf5, 0x0c, 0x0f,
  0xda, 0xf8, 0x0e, 0x12, 0x03, 0x14, 0x12, 0xf2, 0x03, 0xe1, 0xe4, 0x04,
  0x19, 0x0b, 0xf7, 0x0c, 0x0a, 0x23, 0xe7, 0xed, 0x02, 0x0f, 0x06, 0xfb,
  0x1d, 0x0d, 0x0e, 0xee, 0x1e, 0x1d, 0xf9, 0x08, 0x0b, 0xda, 0x1b, 0xf0,
  0xec, 0x09, 0x04, 0x22, 0xe1, 0xfc, 0xeb, 0xff, 0xe2, 0xfe, 0xed, 0xf7,
  0xf9, 0x00, 0x18, 0x16, 0x17, 0x08, 0x19, 0xf3, 0x10, 0x1e, 0xe0, 0x1b,
  0x17, 0x14, 0x18, 0xea, 0xd9, 0x01, 0xf5, 0x1b, 0x0a, 0x04, 0xe3, 0x18,
  0x0f, 0x20, 0xf9, 0xfb, 0x2f, 0xf2, 0xfb, 0xfa, 0xf0, 0x05, 0xfb, 0xe2,
  0x4a, 0xf8, 0x02, 0xc3, 0x07, 0x07, 0xed, 0x00, 0x14, 0xee, 0xd3, 0xb8,
  0xb5, 0xfb, 0xb7, 0x06, 0x12, 0x19, 0xe9, 0xcd, 0xf4, 0x00, 0xda, 0xfe,
  0x13, 0x4c, 0xff, 0xa9, 0x22, 0x21, 0xd7, 0x0a, 0x07, 0x1c, 0xdd, 0xf0,
  0xec, 0xf9, 0xe1, 0xf7, 0xe3, 0x1c, 0x05, 0x35, 0xe1, 0xec, 0xed, 0xf2,
  0x0c, 0x00, 0x16, 0x2a, 0x13, 0x04, 0x1e, 0x0c, 0x0f, 0xea, 0x13, 0x24,
  0x02, 0xda, 0x04, 0xf3, 0xf5, 0xf2, 0xe5, 0xf4, 0x03, 0x1f, 0xff, 0x0c,
  0x10, 0xf9, 0xfa, 0xf6, 0xe1, 0x17, 0xfb, 0x04, 0xe9, 0x1e, 0x0f, 0x0a,
  0xf1, 0x15, 0xf3, 0xe6, 0x06, 0x09, 0xf1, 0x0b, 0x0e, 0x10, 0x00, 0xf3,
  0x00, 0x12, 0xf1, 0x24, 0x05, 0x19, 0x0a, 0xf1, 0xf3, 0xf2, 0xe1, 0x13,
  0x12, 0xf4, 0xfc, 0x04, 0xf1, 0x0a, 0x00, 0x04, 0xde, 0x22, 0xe1, 0x1b,
  0xe3, 0xd8, 0x10, 0x09, 0x1c, 0xfb, 0xfd, 0x2c, 0xe3, 0x15, 0x1d, 0xed,
  0xdd, 0x0d, 0xf1, 0x32, 0x20, 0xfb, 0x0b, 0x17, 0xf6, 0xfb, 0xf3, 0x07,
  0x1e, 0xf7, 0x06, 0x24, 0x1b, 0xfd, 0xe5, 0x22, 0x42, 0xf4, 0xd1, 0x00,
  0x00, 0x14, 0xfa, 0xf7, 0x24, 0xf3, 0xfc, 0xba, 0x11, 0x25, 0xb7, 0xf4,
  0x26, 0xd1, 0x09, 0xb3, 0xdb, 0xe3, 0xe5, 0x02, 0x1c, 0x03, 0xf5, 0xf2,
  0x04, 0x16, 0xcf, 0x0c, 0x25, 0x12, 0xf5, 0xcd, 0x28, 0xdc, 0xed, 0x10,
  0x12, 0x1b, 0xf0, 0xe6, 0x0a, 0xfb, 0x00, 0x10, 0x06, 0x27, 0xda, 0x02,
  0x00, 0xe3, 0xff, 0x14, 0xec, 0xe4, 0x04, 0x18, 0x06, 0x09, 0x29, 0x11,
  0x15, 0xeb, 0x07, 0x0c, 0x16, 0xeb, 0x0e, 0xfa, 0xff, 0xd7, 0x01, 0xfc,
  0x05, 0x04, 0xf1, 0x03, 0x08, 0xe7, 0xfc, 0xed, 0x05, 0x1f, 0xf1, 0xf0,
  0xfd, 0x02, 0xf1, 0xf1, 0xef, 0x09, 0x0f, 0xed, 0xfd, 0x1d, 0xea, 0x04,
  0xf8, 0xf1, 0xeb, 0x11, 0x10, 0xfb, 0x09, 0x09, 0x1f, 0x18, 0x0a, 0xf7,
  0xf9, 0xe4, 0xf3, 0x1e, 0x17, 0x2d, 0xf4, 0x01, 0xec, 0x23, 0xee, 0xfa,
  0xec, 0x1a, 0x01, 0xf5, 0xf4, 0xfd, 0xed, 0x0a, 0x03, 0x06, 0xfc, 0x0e,
  0xf9, 0x18, 0x25, 0xe5, 0xe0, 0x0b, 0x19, 0xfd, 0x14, 0x27, 0xfb, 0xff,
  0xe2, 0x13, 0x01, 0xfb, 0x05, 0x1b, 0xf3, 0x04, 0x2d, 0xfa, 0xff, 0x0f,
  0x08, 0x0d, 0xfd, 0x22, 0x0e, 0xfe, 0x1e, 0x08, 0xe1, 0xfc, 0xd9, 0xe7,
  0xe7, 0x0e, 0x24, 0xd0, 0xd2, 0x18, 0xeb, 0xf8, 0x01, 0x09, 0x11, 0xe5,
  0x0b, 0xef, 0xf5, 0xef, 0x19, 0x09, 0xff, 0x09, 0xfb, 0x26, 0xfe, 0x1b,
  0xfd, 0x06, 0x0e, 0xf8, 0xda, 0x12, 0xf1, 0x19, 0x00, 0x06, 0xf5, 0xe9,
  0x1c, 0x1b, 0x02, 0x18, 0x19, 0xe0, 0x0a, 0xf5, 0x04, 0x2c, 0x01, 0xf8,
  0x21, 0xf0, 0x10, 0xdc, 0x21, 0xf2, 0xf6, 0xf1, 0xf9, 0xfd, 0x15, 0xf2,
  0xfe, 0xf2, 0x0b, 0x11, 0x0e, 0x27, 0x09, 0xef, 0x15, 0x19, 0xfc, 0x03,
  0x0a, 0xed, 0xff, 0xfd, 0x0b, 0xe9, 0x23, 0xeb, 0x1d, 0xf2, 0x05, 0xd6,
  0x11, 0xf9, 0xf2, 0x08, 0x03, 0x02, 0xe6, 0xee, 0xe5, 0x0b, 0xfb, 0xd6,
  0xf6, 0x10, 0x19, 0x11, 0x01, 0x1a, 0xf9, 0x01, 0x01, 0xfb, 0xfe, 0x05,
  0xee, 0x05, 0xd6, 0x18, 0xf0, 0xf7, 0x0c, 0xee, 0x01, 0xfa, 0xf5, 0x09,
  0xf9, 0x05, 0x08, 0x09, 0x19, 0x11, 0xfe, 0x03, 0x03, 0xf5, 0xf4, 0x02,
  0x04, 0x0a, 0xe7, 0xfb, 0xdc, 0x05, 0xee, 0x06, 0x0d, 0x10, 0x09, 0x30,
  0xf1, 0x08, 0x05, 0xf1, 0x09, 0x0e, 0x1a, 0x09, 0xff, 0x1a, 0x0e, 0xf3,
  0xee, 0xf9, 0x0b, 0x00, 0x06, 0xfe, 0xe9, 0xf9, 0xde, 0x0f, 0xf2, 0x26,
  0x1b, 0xd9, 0x2c, 0xe4, 0xeb, 0x15, 0x02, 0x18, 0x08, 0xf6, 0x00, 0xf6,
  0xdc, 0xfb, 0x22, 0xe6, 0x0d, 0x00, 0xe0, 0xfb, 0xf1, 0x23, 0xfb, 0x07,
  0xfb, 0xfc, 0x0c, 0xed, 0x14, 0xf3, 0xeb, 0xe8, 0x05, 0x1a, 0x17, 0x04,
  0x17, 0xf6, 0xf6, 0x07, 0x09, 0xeb, 0xe8, 0x03, 0xf4, 0x14, 0x11, 0xf0,
  0xe3, 0x02, 0xf8, 0xde, 0xf8, 0x0e, 0xdb, 0xec, 0xf8, 0x0f, 0x1e, 0x07,
  0xfe, 0xe2, 0xe6, 0xec, 0x26, 0xf3, 0x24, 0xfc, 0xf3, 0x0e, 0xe6, 0xf5,
  0xf7, 0xdd, 0xed, 0xde, 0xe0, 0xef, 0xe8, 0xfb, 0x03, 0x10, 0xe6, 0xff,
  0xf9, 0x09, 0xeb, 0xf2, 0xd7, 0xee, 0x0c, 0xfd, 0x0f, 0x1d, 0x0b, 0x08,
  0xfd, 0x11, 0xff, 0x03, 0xff, 0xff, 0xdd, 0xf8, 0xf9, 0xd3, 0x00, 0x08,
  0xfd, 0xe9, 0x27, 0x05, 0xfb, 0x10, 0x18, 0x22, 0xf3, 0x17, 0xee, 0xf2,
  0xe7, 0xd8, 0x0f, 0x1b, 0x11, 0x0d, 0xf7, 0x25, 0xf5, 0x12, 0xf5, 0x0d,
  0xf1, 0xfd, 0x22, 0xf6, 0x0a, 0xe8, 0xff, 0x13, 0xd2, 0x18, 0x05, 0x07,
  0x13, 0x31, 0xe3, 0xf3, 0xee, 0x07, 0x11, 0xe7, 0x09, 0x0a, 0x0a, 0x09,
  0xdc, 0x03, 0xd2, 0x02, 0x01, 0x0a, 0x2b, 0x0d, 0xed, 0x24, 0xfa, 0xf6,
  0x06, 0xee, 0x04, 0x03, 0xff, 0x02, 0xee, 0x01, 0xf8, 0xed, 0x11, 0xe6,
  0x05, 0x22, 0xf8, 0xf2, 0xff, 0xe3, 0x20, 0x12, 0xfa, 0x05, 0x0e, 0x25,
  0x07, 0xf7, 0x08, 0x17, 0x0d, 0x13, 0x05, 0x12, 0xfd, 0xf0, 0x11, 0xff,
  0xf6, 0x0a, 0x04, 0xf7, 0xf9, 0xe9, 0xd6, 0xf9, 0xe8, 0x0a, 0xf5, 0x1d,
  0xf9, 0x21, 0xf4, 0x0a, 0xf4, 0xfb, 0xfc, 0xe7, 0x10, 0x0d, 0xe6, 0x03,
  0xf7, 0xff, 0xf5, 0xe8, 0xf2, 0x04, 0xfa, 0x03, 0x07, 0x2b, 0xf9, 0x01,
  0x09, 0x05, 0xf0, 0x05, 0xe5, 0xe5, 0x12, 0xff, 0xf0, 0xec, 0xf5, 0xff,
  0xf3, 0xf6, 0x0c, 0xe7, 0xf8, 0xff, 0x1a, 0xe3, 0xfc, 0x16, 0x17, 0x1e,
  0xf7, 0x08, 0xf9, 0x0e, 0xfb, 0xeb, 0xf5, 0x06, 0xf4, 0x20, 0x11, 0x03,
  0x06, 0x0f, 0xe2, 0xf4, 0xe7, 0xe7, 0xe7, 0x1c, 0xfa, 0xf8, 0x08, 0x0b,
  0x02, 0x21, 0x0c, 0xf8, 0xdf, 0x1f, 0xe3, 0xe9, 0x0c, 0x29, 0x05, 0x05,
  0xe6, 0xff, 0x12, 0x09, 0x10, 0x22, 0xff, 0xec, 0xdc, 0x05, 0xdb, 0x05,
  0x13, 0x12, 0xe3, 0x02, 0xf3, 0x16, 0x0a, 0xfa, 0x07, 0xfb, 0x03, 0x01,
  0x17, 0x19, 0xfc, 0xf8, 0x22, 0xfe, 0x37, 0xf1, 0x0c, 0x1b, 0xf0, 0x10,
  0x08, 0x02, 0xf9, 0x00, 0x0a, 0x00, 0x18, 0xfa, 0xf9, 0xf1, 0x1f, 0x0e,
  0xf9, 0x08, 0x1e, 0x03, 0x24, 0xe1, 0x2c, 0xfe, 0x19, 0x19, 0x13, 0x10,
  0x09, 0xfb, 0x01, 0xfd, 0xfe, 0x2c, 0x0b, 0xf5, 0x17, 0x02, 0x19, 0xf7,
  0xef, 0x16, 0x0c, 0xf9, 0x19, 0x15, 0x17, 0x06, 0xf4, 0xfa, 0x0b, 0x0e,
  0x0b, 0xfe, 0xf9, 0xfa, 0x0b, 0x11, 0x24, 0xfe, 0x08, 0xfe, 0xf7, 0xee,
  0xe5, 0xf0, 0x17, 0x13, 0xfc, 0x0e, 0xfa, 0x03, 0xdf, 0x03, 0x05, 0x15,
  0xf6, 0x17, 0x21, 0xf4, 0xd4, 0xd8, 0x13, 0x18, 0x01, 0x25, 0x1a, 0xee,
  0xfd, 0xe3, 0x0b, 0x04, 0x18, 0xed, 0x02, 0xf6, 0xf5, 0x1a, 0xef, 0xfc,
  0x1b, 0xee, 0x1a, 0x04, 0xfc, 0x0c, 0xf7, 0xf3, 0x0b, 0xe3, 0xf0, 0xea,
  0xf5, 0x12, 0x0b, 0x13, 0x1f, 0xfd, 0x0e, 0xfa, 0xd5, 0x22, 0xfd, 0x0c,
  0x26, 0x13, 0x00, 0xeb, 0xd8, 0xf9, 0xf9, 0x26, 0x02, 0x31, 0xee, 0xe1,
  0xbc, 0x13, 0xe5, 0xf6, 0x21, 0x15, 0x10, 0x0a, 0xff, 0xe4, 0x08, 0x0f,
  0x11, 0xed, 0x24, 0xf8, 0x21, 0x1e, 0x18, 0x08, 0x22, 0xf6, 0x21, 0xe2,
  0x27, 0xfc, 0x2c, 0xfa, 0x10, 0xfe, 0x47, 0xf0, 0xff, 0x06, 0x2d, 0xf8,
  0x0d, 0xee, 0x11, 0xd7, 0xf7, 0xf6, 0x14, 0x06, 0x13, 0x1e, 0x05, 0xf3,
  0x0b, 0x1b, 0xf0, 0xe1, 0x1f, 0xdd, 0xd4, 0xf3, 0xf9, 0xf7, 0x07, 0x06,
  0x09, 0x07, 0xff, 0x04, 0xe1, 0xe9, 0xfe, 0x06, 0x05, 0x0a, 0xea, 0xf3,
  0xf1, 0xe9, 0x1f, 0x26, 0xfe, 0x1d, 0x1b, 0xe0, 0x15, 0x01, 0xfa, 0xeb,
  0x10, 0x07, 0x01, 0xf7, 0xe6, 0xe3, 0x0b, 0xf3, 0x0e, 0x1e, 0xe6, 0x01,
  0xed, 0x12, 0x28, 0x0c, 0xf9, 0x1c, 0xea, 0xd8, 0xd7, 0xf5, 0xf5, 0xf0,
  0xfe, 0x02, 0x15, 0xff, 0xde, 0xfe, 0xfb, 0xe5, 0xf7, 0x12, 0xf2, 0x03,
  0xe6, 0x0b, 0x07, 0xfa, 0x06, 0x18, 0xf1, 0xee, 0xe5, 0x05, 0x23, 0xf1,
  0xfd, 0x05, 0x07, 0xdf, 0xd5, 0x06, 0x25, 0xff, 0x29, 0xda, 0x1e, 0xe8,
  0xbe, 0x0b, 0x07, 0xfc, 0x10, 0xf4, 0x15, 0xdd, 0xce, 0x0c, 0xf5, 0x25,
  0x01, 0x07, 0x00, 0xf6, 0xc6, 0x0d, 0xf3, 0x0c, 0x0f, 0x05, 0xf4, 0xf6,
  0x03, 0xfb, 0xfc, 0x05, 0x33, 0x19, 0x21, 0xe5, 0x35, 0xeb, 0x04, 0xd2,
  0x2a, 0x04, 0x4c, 0xd7, 0x40, 0x2b, 0x2d, 0xd7, 0x16, 0x1c, 0x39, 0xc5,
  0x01, 0x19, 0x2d, 0xdb, 0x2c, 0x0d, 0xfc, 0xc0, 0x0b, 0xef, 0x24, 0xf7,
  0x13, 0x07, 0x28, 0xe7, 0xf9, 0x14, 0x12, 0x00, 0xfb, 0x06, 0x1f, 0xf9,
  0xf6, 0x22, 0x03, 0xfe, 0x1d, 0xf1, 0xf3, 0xed, 0x04, 0xf9, 0x06, 0x11,
  0xf3, 0xd7, 0x22, 0x01, 0x04, 0xf9, 0x09, 0x10, 0x11, 0xf5, 0xf6, 0xe7,
  0xec, 0xff, 0x0c, 0xf7, 0xf6, 0xe0, 0xe6, 0x01, 0xfb, 0x21, 0x10, 0x0c,
  0x1b, 0x00, 0xff, 0xe5, 0xe4, 0x05, 0x03, 0x11, 0xed, 0x08, 0xf2, 0xf8,
  0xd0, 0x1c, 0x14, 0xfc, 0xfb, 0xff, 0xfa, 0x04, 0xd8, 0xff, 0x0b, 0xf5,
  0x0e, 0xf0, 0xe7, 0xde, 0x02, 0xed, 0x0a, 0xf7, 0x1a, 0x1a, 0xfd, 0xea,
  0x0c, 0x17, 0xe7, 0xdf, 0xf0, 0xfa, 0x30, 0xe0, 0xc6, 0x25, 0x0a, 0x1b,
  0x4e, 0xfd, 0x2d, 0xd8, 0xe8, 0x0e, 0x2b, 0xfe, 0x16, 0x20, 0x42, 0xdc,
  0xd5, 0xfc, 0x28, 0x1a, 0x01, 0x00, 0x18, 0xf4, 0xb5, 0x08, 0x0e, 0x05,
  0x16, 0x11, 0x18, 0xdf, 0x06, 0xee, 0xf6, 0x08, 0x22, 0xfa, 0x43, 0xcf,
  0x4b, 0xfe, 0xdf, 0xd8, 0x3b, 0x17, 0x64, 0xb3, 0x30, 0x1d, 0x26, 0xee,
  0xfb, 0x07, 0x50, 0xbf, 0x06, 0xf8, 0x45, 0xe3, 0x1d, 0x0b, 0x3f, 0xd9,
  0xf2, 0xe2, 0x0c, 0xf2, 0x02, 0x19, 0x32, 0xd2, 0x1a, 0xf0, 0x06, 0x01,
  0x11, 0xf7, 0xee, 0xfc, 0x0d, 0x06, 0x01, 0x04, 0x0f, 0xe2, 0x2c, 0xf0,
  0x05, 0x1d, 0xe2, 0xec, 0x0c, 0x29, 0x07, 0x04, 0x10, 0xe4, 0xe6, 0x0f,
  0x0d, 0xf8, 0xe7, 0x07, 0xf3, 0xfb, 0xff, 0xd0, 0x19, 0xfd, 0xff, 0x15,
  0xfa, 0x07, 0x21, 0xdd, 0x0a, 0x04, 0x0b, 0xe5, 0xdd, 0xfd, 0xfe, 0xf6,
  0x0f, 0xff, 0x07, 0xf3, 0xcd, 0xfb, 0xe7, 0x02, 0xf8, 0xea, 0x1d, 0xd7,
  0xd8, 0x04, 0x10, 0xf6, 0xf0, 0xfa, 0xe1, 0xfa, 0x1d, 0x12, 0xf5, 0xed,
  0xfb, 0xec, 0x02, 0xe0, 0xf1, 0xff, 0x18, 0xcd, 0x02, 0x20, 0x27, 0xb3,
  0xe4, 0x10, 0x0f, 0x01, 0x34, 0x02, 0x2e, 0xad, 0xe3, 0x00, 0x03, 0xf6,
  0x04, 0x18, 0x0d, 0xbf, 0xc7, 0x0e, 0x02, 0x02, 0x08, 0xea, 0x25, 0xd3,
  0xbe, 0x14, 0x23, 0x11, 0x2c, 0x02, 0x0f, 0xe9, 0x17, 0x02, 0x18, 0xe7,
  0x2e, 0xeb, 0x43, 0xc4, 0x2f, 0xf1, 0xf5, 0xe6, 0x17, 0x02, 0x64, 0xb1,
  0x41, 0x01, 0x23, 0xf0, 0xfd, 0x02, 0x45, 0xae, 0xfe, 0x22, 0x2b, 0xf8,
  0x26, 0x0c, 0x20, 0xc9, 0x00, 0xf8, 0x28, 0xe8, 0x0e, 0xe7, 0x16, 0xc8,
  0x14, 0x1b, 0xfc, 0xfe, 0xf3, 0xfe, 0xfa, 0xe7, 0xd7, 0xe5, 0x06, 0x29,
  0x04, 0xf4, 0xf0, 0xf6, 0xf0, 0x01, 0xec, 0x0a, 0xf6, 0xe9, 0xfb, 0x03,
  0x21, 0xe7, 0xef, 0x11, 0xf4, 0xf6, 0xfe, 0xe7, 0x11, 0xf4, 0xf8, 0xf3,
  0x08, 0x0c, 0xe7, 0xf8, 0xd9, 0x04, 0x07, 0xed, 0x04, 0xee, 0x0e, 0xef,
  0xe5, 0x0e, 0x10, 0x0f, 0xec, 0xfe, 0xfd, 0xfe, 0xca, 0x10, 0xef, 0xf1,
  0xe7, 0x1b, 0xf0, 0x12, 0xdd, 0x14, 0x1d, 0x05, 0xfe, 0x16, 0xf5, 0xf0,
  0x03, 0x00, 0x03, 0x03, 0x15, 0x01, 0xf2, 0xf8, 0x01, 0x00, 0xe5, 0xe4,
  0xf3, 0xe0, 0x39, 0xc6, 0xd0, 0xed, 0x00, 0xf9, 0x40, 0x10, 0x2a, 0xaf,
  0xf8, 0x05, 0x31, 0xef, 0xfe, 0x10, 0x31, 0xcc, 0xe5, 0xf2, 0x42, 0xe7,
  0x09, 0x00, 0x02, 0xfc, 0xcf, 0xe6, 0x06, 0x03, 0x19, 0x08, 0xe1, 0xea,
  0x00, 0x06, 0xe6, 0x06, 0x36, 0x22, 0x21, 0xb9, 0x41, 0xe9, 0xe3, 0xe1,
  0x2b, 0x18, 0x41, 0x93, 0x46, 0xea, 0x29, 0xfd, 0x15, 0xe1, 0x33, 0xba,
  0x07, 0x06, 0x48, 0xeb, 0x23, 0xef, 0x3c, 0xdc, 0xfb, 0x07, 0x22, 0xf8,
  0x02, 0x13, 0x0a, 0xd7, 0x35, 0xe5, 0x17, 0x14, 0x04, 0x23, 0xeb, 0xf5,
  0xe5, 0x0c, 0xff, 0x02, 0xfc, 0xfb, 0x23, 0xfb, 0xeb, 0xf5, 0x05, 0xfa,
  0xe8, 0x1a, 0xe4, 0xeb, 0x0f, 0xcb, 0x04, 0x00, 0x17, 0x04, 0xec, 0xea,
  0x10, 0xf7, 0x06, 0xd9, 0x1a, 0x0b, 0xda, 0xf6, 0xf0, 0x12, 0x27, 0xe4,
  0x0b, 0x0f, 0x00, 0xfb, 0xeb, 0x06, 0x0c, 0xfe, 0x0c, 0x15, 0x1b, 0xf1,
  0xcc, 0xe7, 0x09, 0xf9, 0xf1, 0x04, 0x03, 0xdc, 0xd1, 0x0d, 0x0b, 0x0b,
  0xea, 0x1d, 0xd5, 0xf3, 0xf9, 0x31, 0xfa, 0xfb, 0x00, 0xf5, 0x08, 0xef,
  0xef, 0x02, 0xf0, 0xf0, 0x20, 0xf5, 0x28, 0xad, 0xca, 0x01, 0x10, 0xfb,
  0x58, 0x18, 0x31, 0xa8, 0xe8, 0xe9, 0x1e, 0xef, 0x14, 0xf6, 0x21, 0xb4,
  0xce, 0xdf, 0x27, 0xf1, 0xe5, 0x28, 0x10, 0x04, 0xb7, 0xe1, 0x0d, 0x00,
  0x1d, 0xfe, 0xe9, 0x08, 0x11, 0xe1, 0xdf, 0x12, 0x21, 0x13, 0x35, 0xda,
  0x1f, 0x06, 0xd3, 0xd7, 0x2b, 0x13, 0x58, 0x87, 0x4e, 0x04, 0x3e, 0xf6,
  0x19, 0x1a, 0x43, 0xae, 0x2a, 0x22, 0x45, 0x00, 0x0a, 0xe8, 0x31, 0xdb,
  0x23, 0x07, 0x30, 0x0f, 0xf4, 0xfc, 0x0f, 0xbe, 0x1d, 0x06, 0x1b, 0x21,
  0xfd, 0x09, 0xe9, 0xda, 0xf7, 0xf3, 0x29, 0x17, 0x01, 0x22, 0xfb, 0xef,
  0xe0, 0xe0, 0x17, 0xf8, 0x00, 0x11, 0x13, 0x02, 0x1c, 0xe4, 0xe0, 0x0f,
  0x02, 0x30, 0x28, 0xd5, 0x1b, 0x0c, 0xfb, 0x06, 0x01, 0x2c, 0xea, 0x08,
  0x09, 0xfc, 0xf9, 0x00, 0xfa, 0xfc, 0x0e, 0xe0, 0xfc, 0xfd, 0x0c, 0xf3,
  0xfd, 0x14, 0xee, 0x04, 0xe6, 0xf7, 0x09, 0x00, 0xef, 0x09, 0x0e, 0xe1,
  0xed, 0xfe, 0x19, 0x03, 0xfb, 0xea, 0xeb, 0x09, 0x00, 0xfd, 0x02, 0x0c,
  0xf2, 0x33, 0x2a, 0x04, 0xf0, 0xef, 0x10, 0xf3, 0x04, 0xfe, 0x56, 0xcc,
  0xda, 0xfe, 0x18, 0x13, 0x51, 0xef, 0x39, 0x99, 0x04, 0x0d, 0x2a, 0xf9,
  0x29, 0xed, 0x3e, 0xd4, 0xe0, 0xec, 0x0e, 0xe6, 0x10, 0x20, 0x02, 0xf4,
  0xc0, 0xd2, 0x06, 0x01, 0x16, 0x08, 0xe0, 0x01, 0x11, 0x08, 0xe6, 0xea,
  0x22, 0x09, 0x14, 0xb6, 0x26, 0xfa, 0xce, 0xdd, 0x10, 0xfd, 0x53, 0x81,
  0x43, 0xff, 0x23, 0xf5, 0x02, 0x01, 0x27, 0xab, 0x45, 0x0f, 0x23, 0xf5,
  0x17, 0xfd, 0x2c, 0xcf, 0x22, 0x0f, 0x10, 0xfc, 0x10, 0xfc, 0x21, 0xd9,
  0x0e, 0xfd, 0x06, 0x07, 0xf4, 0xed, 0xe4, 0xeb, 0x04, 0xeb, 0x18, 0xf3,
  0x0a, 0xf2, 0xe4, 0xdd, 0xd7, 0xdc, 0xff, 0x05, 0xf4, 0xe0, 0x0e, 0xef,
  0xf1, 0x04, 0xf4, 0x0c, 0x10, 0x10, 0x23, 0xe0, 0x04, 0xfa, 0x1c, 0xff,
  0x0a, 0x0b, 0x18, 0xe9, 0x0a, 0xfd, 0xf9, 0xec, 0x05, 0x25, 0x06, 0xfb,
  0x17, 0x02, 0xfe, 0x16, 0x10, 0x1a, 0x2a, 0x04, 0xed, 0x00, 0xfd, 0x1b,
  0xf4, 0x16, 0xf0, 0xd3, 0xe0, 0x33, 0x01, 0x15, 0xf5, 0xf9, 0xfd, 0x12,
  0x11, 0xf5, 0xf5, 0x02, 0x02, 0x13, 0x2b, 0xee, 0x07, 0xf8, 0xf1, 0xf2,
  0x10, 0x00, 0x3d, 0xcd, 0xef, 0xfd, 0x10, 0x0e, 0x5c, 0xfd, 0x55, 0x9e,
  0xf2, 0xed, 0x2d, 0x04, 0x36, 0x13, 0x4d, 0xdd, 0xf0, 0xfc, 0x2a, 0xf3,
  0x10, 0x20, 0xf4, 0x02, 0xd2, 0xea, 0x0e, 0x07, 0x0d, 0x23, 0xe7, 0x22,
  0xfe, 0xfc, 0xda, 0xf9, 0x35, 0x24, 0xfe, 0xc4, 0x46, 0xfc, 0xe9, 0xe3,
  0x1d, 0x0c, 0x3a, 0xa1, 0x3f, 0xf6, 0x27, 0xf4, 0x1f, 0x0f, 0x32, 0xbe,
  0x2a, 0x34, 0x22, 0x00, 0x1e, 0x04, 0x19, 0xb4, 0x10, 0xf9, 0x28, 0xf6,
  0x1b, 0xf8, 0x16, 0xd0, 0x0b, 0x07, 0x08, 0x1d, 0x10, 0x00, 0xf5, 0xef,
  0x00, 0xf9, 0x1e, 0x01, 0xfd, 0xf8, 0xe9, 0x05, 0xf1, 0x0a, 0x0c, 0x1f,
  0x1f, 0xfd, 0xe5, 0xf9, 0x08, 0xf2, 0xe8, 0x00, 0x15, 0x0e, 0x20, 0xe2,
  0x26, 0x07, 0x00, 0x08, 0x12, 0xdf, 0xf5, 0x02, 0x05, 0x17, 0xf9, 0xf5,
  0xfc, 0xe2, 0x2b, 0xf9, 0xf2, 0x08, 0x11, 0xfc, 0x11, 0x34, 0xed, 0xcf,
  0xe2, 0xe9, 0x18, 0x11, 0x01, 0x28, 0xef, 0xf5, 0xe7, 0x1a, 0x12, 0xff,
  0xfd, 0xdb, 0x00, 0xf9, 0xfe, 0x0b, 0x08, 0x00, 0xe5, 0xf5, 0xe8, 0xf1,
  0xff, 0xeb, 0xd9, 0xe7, 0x17, 0xef, 0x3f, 0xc0, 0xf6, 0xd9, 0x0a, 0x0f,
  0x49, 0x16, 0x4c, 0x96, 0x00, 0x0a, 0x2e, 0xdf, 0x3d, 0xfb, 0x38, 0xbd,
  0xd2, 0xe3, 0x3c, 0xe9, 0x14, 0x12, 0x1b, 0x17, 0xc8, 0xed, 0xf5, 0x17,
  0x0f, 0xfc, 0xe6, 0x0a, 0x01, 0x05, 0xba, 0x09, 0x20, 0x26, 0x0e, 0x9a,
  0x30, 0xf8, 0xd7, 0xe5, 0x1a, 0x1b, 0x30, 0x99, 0x44, 0x26, 0x1c, 0x06,
  0x27, 0xfc, 0x39, 0x98, 0x39, 0x23, 0x37, 0x03, 0x26, 0xf1, 0x2e, 0xcc,
  0x32, 0x1b, 0x2b, 0xf1, 0x0a, 0x09, 0x08, 0xc4, 0x26, 0xfe, 0x06, 0xff,
  0x0e, 0x12, 0xfd, 0xee, 0x13, 0x07, 0x1d, 0x01, 0xe2, 0xf0, 0xe6, 0xff,
  0xe2, 0xeb, 0xfb, 0xfd, 0xe5, 0x0d, 0xed, 0x01, 0x05, 0xe7, 0xdd, 0x0a,
  0x1b, 0xfd, 0x1c, 0xe4, 0x08, 0x0d, 0x01, 0xf0, 0xfa, 0xe8, 0x14, 0xe3,
  0xed, 0x0c, 0x02, 0xf1, 0x13, 0x1c, 0xed, 0xd2, 0xe7, 0xf5, 0x08, 0x1f,
  0x0b, 0x0c, 0xff, 0xe5, 0xf5, 0xdc, 0xf7, 0x06, 0xfd, 0x35, 0x05, 0xdd,
  0xea, 0xff, 0xe7, 0x07, 0xfc, 0x0d, 0xf0, 0x1a, 0xf2, 0x25, 0xdb, 0xfe,
  0xe7, 0x20, 0xed, 0xe5, 0x13, 0xe6, 0xd4, 0xef, 0xe8, 0xea, 0x40, 0xac,
  0xfa, 0xdd, 0x0b, 0x1b, 0x43, 0x1a, 0x4b, 0x9e, 0xf7, 0xf3, 0x0e, 0xff,
  0x25, 0xef, 0x3f, 0xcd, 0xdc, 0xe6, 0x36, 0xe5, 0xf7, 0x09, 0x09, 0x04,
  0xc3, 0xf9, 0xec, 0x0b, 0x0c, 0x2a, 0xf0, 0x06, 0x06, 0x07, 0xed, 0xf9,
  0x30, 0x0e, 0x36, 0xd0, 0x25, 0xfc, 0xcf, 0x05, 0x33, 0x1f, 0x2d, 0x9b,
  0x35, 0x1f, 0x12, 0xe7, 0x24, 0x12, 0x43, 0xa2, 0x3e, 0x14, 0x2e, 0xeb,
  0x27, 0x14, 0x19, 0xde, 0x13, 0x10, 0x1c, 0xfe, 0x0b, 0xfe, 0x1f, 0xd7,
  0x2f, 0x00, 0x24, 0x11, 0xfd, 0x25, 0xfb, 0xe7, 0xf5, 0xed, 0x1f, 0x03,
  0xe7, 0x14, 0xe4, 0xfe, 0xea, 0xec, 0x0e, 0x10, 0xf0, 0x13, 0x01, 0xe4,
  0x03, 0x14, 0xf6, 0xf4, 0x18, 0xf2, 0xfc, 0xdd, 0xfc, 0xf0, 0x11, 0xf4,
  0x0f, 0x08, 0x06, 0xd3, 0xfc, 0x1a, 0x1e, 0xe1, 0x16, 0xff, 0x0a, 0x06,
  0xf7, 0x08, 0x1a, 0x06, 0x23, 0xf4, 0xf1, 0xe1, 0xdd, 0x04, 0x08, 0x1d,
  0xf7, 0xf2, 0xee, 0xeb, 0x07, 0x1b, 0xed, 0x08, 0xf6, 0xf7, 0xfc, 0x01,
  0x05, 0xf7, 0x17, 0x0a, 0xe1, 0xfd, 0x09, 0xcb, 0x00, 0xe2, 0x1c, 0xe6,
  0xfe, 0xf9, 0x4f, 0xd0, 0x14, 0xf3, 0x02, 0x0f, 0x37, 0xff, 0x44, 0xac,
  0xfe, 0xe3, 0x20, 0x00, 0x35, 0x09, 0x26, 0xb7, 0xfa, 0xdc, 0x26, 0xf7,
  0x08, 0x11, 0x01, 0x10, 0xcb, 0xfe, 0xfd, 0x07, 0x0f, 0x04, 0x01, 0xe7,
  0xe0, 0xf2, 0xd2, 0xf0, 0x35, 0xf6, 0x12, 0xd0, 0x31, 0xf3, 0xde, 0xf5,
  0x15, 0x07, 0x36, 0x98, 0x3d, 0x0d, 0x08, 0xfb, 0x1f, 0x0d, 0x34, 0xab,
  0x36, 0x21, 0x2d, 0x05, 0x06, 0xf1, 0x22, 0xc8, 0x22, 0x2d, 0x15, 0x0e,
  0x15, 0xff, 0x1e, 0xf6, 0x3c, 0x17, 0x07, 0x12, 0xfc, 0x09, 0xf3, 0xf6,
  0x0a, 0xef, 0x21, 0x14, 0xfb, 0x33, 0xe8, 0xe4, 0xf6, 0x03, 0x17, 0xfb,
  0xf8, 0x1e, 0x08, 0xea, 0xf9, 0xf4, 0xe0, 0x05, 0x1f, 0x19, 0x1e, 0xde,
  0xf9, 0x07, 0x08, 0xee, 0x2d, 0x20, 0x12, 0xf2, 0xdf, 0x18, 0x0e, 0x02,
  0xfb, 0xeb, 0x19, 0xea, 0xfe, 0xf6, 0x07, 0x13, 0x06, 0x07, 0xfe, 0xfb,
  0xeb, 0xf1, 0xee, 0x0b, 0x08, 0x09, 0x1a, 0xf0, 0x04, 0x0f, 0x17, 0x07,
  0xf8, 0x20, 0xeb, 0xdc, 0x04, 0x07, 0xf4, 0x01, 0x18, 0xfd, 0x1a, 0xcc,
  0xee, 0xf9, 0x1b, 0xfa, 0xfb, 0xfa, 0x3a, 0xbb, 0xf5, 0xf4, 0xfa, 0x0d,
  0x3b, 0x13, 0x43, 0xb3, 0x09, 0xe6, 0x26, 0xf7, 0x35, 0xeb, 0x36, 0xe8,
  0xd0, 0xf3, 0x25, 0xf9, 0x06, 0xf6, 0xff, 0x0b, 0xcf, 0xf4, 0x23, 0xfb,
  0x0c, 0x34, 0xea, 0x1a, 0xee, 0xfe, 0xeb, 0xf6, 0x1f, 0x36, 0x02, 0xbf,
  0x2c, 0xdc, 0xbc, 0x07, 0x15, 0x17, 0x21, 0xa7, 0x49, 0x15, 0x32, 0x06,
  0xfa, 0x03, 0x30, 0xad, 0x47, 0x1e, 0x20, 0x02, 0x04, 0x06, 0x2f, 0xd6,
  0x1b, 0x1a, 0x32, 0xfa, 0x0e, 0x03, 0x1b, 0xcb, 0x2b, 0x07, 0x2c, 0x08,
  0x0f, 0xf8, 0x03, 0xeb, 0xfe, 0x17, 0x2a, 0x01, 0xe8, 0x23, 0xee, 0xe7,
  0xda, 0xeb, 0x07, 0xf8, 0xf7, 0x0a, 0x05, 0xd9, 0x0e, 0x0a, 0xca, 0x0c,
  0x02, 0x2c, 0x14, 0xd8, 0x1c, 0x0d, 0xf8, 0x06, 0x17, 0xfa, 0xf8, 0xee,
  0xf1, 0xfb, 0x36, 0x04, 0xff, 0x22, 0x10, 0x04, 0xfe, 0x08, 0xef, 0x13,
  0x14, 0x0c, 0xf9, 0xf7, 0xd6, 0xff, 0xed, 0x08, 0xff, 0x0f, 0x17, 0xf7,
  0xec, 0xef, 0x11, 0xf8, 0x0c, 0x1a, 0xf6, 0xf8, 0x13, 0x03, 0xf0, 0xfc,
  0xf3, 0xec, 0x02, 0xc0, 0xf1, 0x07, 0xdc, 0xf2, 0xef, 0xfa, 0x46, 0xc9,
  0xfc, 0xe3, 0x0e, 0x0e, 0x39, 0xf1, 0x33, 0xc4, 0xfd, 0xc8, 0x36, 0x0c,
  0x2d, 0x18, 0x2d, 0xed, 0xf2, 0xeb, 0x3a, 0xf3, 0x02, 0xe4, 0xf1, 0x11,
  0xef, 0xe6, 0xfe, 0xfb, 0x2c, 0x07, 0xf2, 0x07, 0x00, 0xf7, 0xe0, 0xef,
  0x35, 0x05, 0x10, 0xce, 0x3b, 0xf2, 0xdc, 0x0b, 0x2f, 0x03, 0x2d, 0xab,
  0x2a, 0x2b, 0x14, 0x05, 0x0c, 0x20, 0x45, 0xb4, 0x32, 0x19, 0x23, 0xfe,
  0x08, 0x21, 0x2b, 0xd1, 0x31, 0x15, 0x25, 0xfa, 0x17, 0x0f, 0x05, 0xda,
  0x3b, 0x1c, 0x23, 0x06, 0x08, 0x13, 0xfc, 0xea, 0x0d, 0x06, 0x1f, 0x0a,
  0xe8, 0x04, 0xe4, 0xf1, 0xf6, 0xff, 0x14, 0xfc, 0x00, 0x1e, 0xed, 0x01,
  0x09, 0x01, 0xf2, 0xf3, 0x0e, 0x05, 0xfd, 0xe3, 0xf7, 0x1b, 0xf4, 0x08,
  0x28, 0x13, 0xfa, 0xe2, 0xe8, 0xda, 0x18, 0x15, 0x0d, 0xff, 0xf2, 0x05,
  0xfa, 0xf3, 0x0b, 0x0a, 0x0d, 0xea, 0xff, 0xd9, 0xf4, 0xf4, 0xf4, 0x16,
  0x06, 0x1a, 0xfc, 0xe3, 0xfb, 0xe4, 0xef, 0x0d, 0x02, 0x0d, 0xfc, 0x17,
  0x0b, 0xf0, 0xdd, 0x0c, 0x0c, 0xfa, 0x05, 0xca, 0x18, 0xe2, 0x06, 0xff,
  0xea, 0xf8, 0x51, 0xab, 0xed, 0xf1, 0xff, 0x13, 0x3c, 0xec, 0x55, 0xd4,
  0x07, 0xf3, 0x1b, 0xfc, 0x32, 0x24, 0x37, 0xdf, 0xe6, 0xe1, 0x29, 0xed,
  0x0c, 0x05, 0x06, 0xee, 0xda, 0xf8, 0x0a, 0xdf, 0x13, 0x0c, 0xfd, 0x07,
  0x02, 0x06, 0xe8, 0x06, 0x23, 0x11, 0x1e, 0xdd, 0x2c, 0xd0, 0xd5, 0xf9,
  0x19, 0xe3, 0x2a, 0xb4, 0x3c, 0x00, 0x1c, 0xfe, 0x0b, 0xd9, 0x28, 0xb0,
  0x34, 0x1b, 0x27, 0xef, 0x11, 0x03, 0x2a, 0xde, 0x0f, 0x15, 0x21, 0xf9,
  0x16, 0x02, 0x04, 0xe0, 0x33, 0xe4, 0x25, 0xfb, 0x08, 0x10, 0xe9, 0xd6,
  0x0c, 0xe4, 0x20, 0xfe, 0xf7, 0x0c, 0xed, 0xf9, 0x0b, 0x14, 0xf2, 0x0f,
  0xf0, 0xe5, 0x0b, 0xdc, 0x03, 0xfd, 0xf5, 0x0f, 0x07, 0xd4, 0xfe, 0xd4,
  0xfa, 0xf0, 0x00, 0xf0, 0x1f, 0x14, 0x07, 0xcc, 0xfa, 0x05, 0x34, 0x04,
  0x02, 0x30, 0x00, 0xed, 0x06, 0xf3, 0xfd, 0xf8, 0xfd, 0xf6, 0x11, 0xfd,
  0xe8, 0xed, 0x09, 0x00, 0x05, 0xfc, 0x09, 0xef, 0xf0, 0x1b, 0x19, 0x05,
  0xf0, 0xea, 0xf2, 0xe3, 0x12, 0x04, 0x00, 0x05, 0xdb, 0x0d, 0x1c, 0xcd,
  0x0b, 0xf2, 0xe2, 0xe6, 0x27, 0xf8, 0x32, 0xd7, 0xf2, 0xd8, 0x0e, 0x05,
  0x4c, 0xdb, 0x2a, 0xbc, 0xe5, 0xc0, 0x2f, 0xf6, 0x2f, 0xe8, 0x2e, 0xd1,
  0xe3, 0xe3, 0x2b, 0xea, 0x11, 0xe5, 0x02, 0x02, 0xeb, 0x0f, 0xf6, 0xdf,
